{
  "version": "1.0",
  "truncation": null,
  "padding": null,
  "added_tokens": [
    {
      "id": 0,
      "content": "[PAD]",
      "single_word": false,
      "lstrip": false,
      "rstrip": false,
      "normalized": false,
      "special": true
    },
    {
      "id": 1,
      "content": "[UNK]",
      "single_word": false,
      "lstrip": false,
      "rstrip": false,
      "normalized": false,
      "special": true
    },
    {
      "id": 2,
      "content": "[CLS]",
      "single_word": false,
      "lstrip": false,
      "rstrip": false,
      "normalized": false,
      "special": true
    },
    {
      "id": 3,
      "content": "[SEP]",
      "single_word": false,
      "lstrip": false,
      "rstrip": false,
      "normalized": false,
      "special": true
    }
  ],
  "normalizer": {
    "type": "NFD"
  },
  "pre_tokenizer": {
    "type": "Whitespace"
  },
  "post_processor": {
    "type": "TemplateProcessing",
    "single": [
      {
        "SpecialToken": {
          "id": "[CLS]",
          "type_id": 0
        }
      },
      {
        "Sequence": {
          "id": "A",
          "type_id": 0
        }
      }
    ],
    "pair": [
      {
        "SpecialToken": {
          "id": "[CLS]",
          "type_id": 0
        }
      },
      {
        "Sequence": {
          "id": "A",
          "type_id": 0
        }
      },
      {
        "SpecialToken": {
          "id": "[SEP]",
          "type_id": 0
        }
      },
      {
        "Sequence": {
          "id": "B",
          "type_id": 0
        }
      }
    ],
    "special_tokens": {
      "[CLS]": {
        "id": "[CLS]",
        "ids": [
          2
        ],
        "tokens": [
          "[CLS]"
        ]
      },
      "[SEP]": {
        "id": "[SEP]",
        "ids": [
          3
        ],
        "tokens": [
          "[SEP]"
        ]
      }
    }
  },
  "decoder": null,
  "model": {
    "type": "BPE",
    "dropout": null,
    "unk_token": "[UNK]",
    "continuing_subword_prefix": null,
    "end_of_word_suffix": null,
    "fuse_unk": false,
    "byte_fallback": false,
    "ignore_merges": false,
    "vocab": {
      "[PAD]": 0,
      "[UNK]": 1,
      "[CLS]": 2,
      "[SEP]": 3,
      "!": 4,
      "\"": 5,
      "#": 6,
      "$": 7,
      "%": 8,
      "&": 9,
      "'": 10,
      "(": 11,
      ")": 12,
      "*": 13,
      "+": 14,
      ",": 15,
      "-": 16,
      ".": 17,
      "/": 18,
      "0": 19,
      "1": 20,
      "2": 21,
      "3": 22,
      "4": 23,
      "5": 24,
      "6": 25,
      "7": 26,
      "8": 27,
      "9": 28,
      ":": 29,
      ";": 30,
      "<": 31,
      "=": 32,
      ">": 33,
      "?": 34,
      "A": 35,
      "B": 36,
      "C": 37,
      "D": 38,
      "E": 39,
      "F": 40,
      "G": 41,
      "H": 42,
      "I": 43,
      "J": 44,
      "K": 45,
      "L": 46,
      "M": 47,
      "N": 48,
      "O": 49,
      "P": 50,
      "Q": 51,
      "R": 52,
      "S": 53,
      "T": 54,
      "U": 55,
      "V": 56,
      "W": 57,
      "X": 58,
      "Y": 59,
      "Z": 60,
      "[": 61,
      "\\": 62,
      "]": 63,
      "^": 64,
      "_": 65,
      "`": 66,
      "a": 67,
      "b": 68,
      "c": 69,
      "d": 70,
      "e": 71,
      "f": 72,
      "g": 73,
      "h": 74,
      "i": 75,
      "j": 76,
      "k": 77,
      "l": 78,
      "m": 79,
      "n": 80,
      "o": 81,
      "p": 82,
      "q": 83,
      "r": 84,
      "s": 85,
      "t": 86,
      "u": 87,
      "v": 88,
      "w": 89,
      "x": 90,
      "y": 91,
      "z": 92,
      "~": 93,
      "«": 94,
      "°": 95,
      "²": 96,
      "³": 97,
      "»": 98,
      "ŋ": 99,
      "Ɔ": 100,
      "Ɛ": 101,
      "ɔ": 102,
      "ɛ": 103,
      "́": 104,
      "̃": 105,
      "̄": 106,
      "ε": 107,
      "η": 108,
      "Ͻ": 109,
      "ሀ": 110,
      "ሁ": 111,
      "ሂ": 112,
      "ሃ": 113,
      "ሄ": 114,
      "ህ": 115,
      "ሆ": 116,
      "ለ": 117,
      "ሉ": 118,
      "ሊ": 119,
      "ላ": 120,
      "ሌ": 121,
      "ል": 122,
      "ሎ": 123,
      "ሏ": 124,
      "ሐ": 125,
      "ሒ": 126,
      "ሔ": 127,
      "ሕ": 128,
      "መ": 129,
      "ሙ": 130,
      "ሚ": 131,
      "ማ": 132,
      "ሜ": 133,
      "ም": 134,
      "ሞ": 135,
      "ሟ": 136,
      "ሠ": 137,
      "ሡ": 138,
      "ሣ": 139,
      "ሥ": 140,
      "ሦ": 141,
      "ረ": 142,
      "ሩ": 143,
      "ሪ": 144,
      "ራ": 145,
      "ሬ": 146,
      "ር": 147,
      "ሮ": 148,
      "ሯ": 149,
      "ሰ": 150,
      "ሱ": 151,
      "ሲ": 152,
      "ሳ": 153,
      "ሴ": 154,
      "ስ": 155,
      "ሶ": 156,
      "ሷ": 157,
      "ሸ": 158,
      "ሹ": 159,
      "ሺ": 160,
      "ሻ": 161,
      "ሼ": 162,
      "ሽ": 163,
      "ሾ": 164,
      "ቀ": 165,
      "ቁ": 166,
      "ቂ": 167,
      "ቃ": 168,
      "ቄ": 169,
      "ቅ": 170,
      "ቆ": 171,
      "ቋ": 172,
      "በ": 173,
      "ቡ": 174,
      "ቢ": 175,
      "ባ": 176,
      "ቤ": 177,
      "ብ": 178,
      "ቦ": 179,
      "ቧ": 180,
      "ቨ": 181,
      "ቩ": 182,
      "ቪ": 183,
      "ቫ": 184,
      "ቬ": 185,
      "ቭ": 186,
      "ቮ": 187,
      "ተ": 188,
      "ቱ": 189,
      "ቲ": 190,
      "ታ": 191,
      "ቴ": 192,
      "ት": 193,
      "ቶ": 194,
      "ቷ": 195,
      "ቸ": 196,
      "ቹ": 197,
      "ቺ": 198,
      "ቻ": 199,
      "ቼ": 200,
      "ች": 201,
      "ቾ": 202,
      "ቿ": 203,
      "ኀ": 204,
      "ኃ": 205,
      "ኅ": 206,
      "ኋ": 207,
      "ነ": 208,
      "ኑ": 209,
      "ኒ": 210,
      "ና": 211,
      "ኔ": 212,
      "ን": 213,
      "ኖ": 214,
      "ኗ": 215,
      "ኘ": 216,
      "ኙ": 217,
      "ኚ": 218,
      "ኛ": 219,
      "ኜ": 220,
      "ኝ": 221,
      "ኞ": 222,
      "አ": 223,
      "ኢ": 224,
      "ኣ": 225,
      "ኤ": 226,
      "እ": 227,
      "ኦ": 228,
      "ከ": 229,
      "ኩ": 230,
      "ኪ": 231,
      "ካ": 232,
      "ኬ": 233,
      "ክ": 234,
      "ኮ": 235,
      "ኳ": 236,
      "ኸ": 237,
      "ኹ": 238,
      "ኼ": 239,
      "ወ": 240,
      "ዉ": 241,
      "ዊ": 242,
      "ዋ": 243,
      "ዌ": 244,
      "ው": 245,
      "ዎ": 246,
      "ዐ": 247,
      "ዑ": 248,
      "ዓ": 249,
      "ዕ": 250,
      "ዖ": 251,
      "ዘ": 252,
      "ዙ": 253,
      "ዚ": 254,
      "ዛ": 255,
      "ዜ": 256,
      "ዝ": 257,
      "ዞ": 258,
      "ዟ": 259,
      "ዣ": 260,
      "ዥ": 261,
      "ዦ": 262,
      "የ": 263,
      "ዩ": 264,
      "ዪ": 265,
      "ያ": 266,
      "ዬ": 267,
      "ይ": 268,
      "ዮ": 269,
      "ደ": 270,
      "ዱ": 271,
      "ዲ": 272,
      "ዳ": 273,
      "ዴ": 274,
      "ድ": 275,
      "ዶ": 276,
      "ዷ": 277,
      "ጀ": 278,
      "ጁ": 279,
      "ጂ": 280,
      "ጃ": 281,
      "ጄ": 282,
      "ጅ": 283,
      "ጆ": 284,
      "ጇ": 285,
      "ገ": 286,
      "ጉ": 287,
      "ጊ": 288,
      "ጋ": 289,
      "ጌ": 290,
      "ግ": 291,
      "ጎ": 292,
      "ጐ": 293,
      "ጓ": 294,
      "ጠ": 295,
      "ጡ": 296,
      "ጢ": 297,
      "ጣ": 298,
      "ጤ": 299,
      "ጥ": 300,
      "ጦ": 301,
      "ጧ": 302,
      "ጨ": 303,
      "ጩ": 304,
      "ጪ": 305,
      "ጫ": 306,
      "ጬ": 307,
      "ጭ": 308,
      "ጮ": 309,
      "ጵ": 310,
      "ጸ": 311,
      "ጹ": 312,
      "ጻ": 313,
      "ጽ": 314,
      "ጾ": 315,
      "ፀ": 316,
      "ፁ": 317,
      "ፃ": 318,
      "ፅ": 319,
      "ፆ": 320,
      "ፈ": 321,
      "ፉ": 322,
      "ፊ": 323,
      "ፋ": 324,
      "ፌ": 325,
      "ፍ": 326,
      "ፎ": 327,
      "ፏ": 328,
      "ፐ": 329,
      "ፑ": 330,
      "ፒ": 331,
      "ፓ": 332,
      "ፔ": 333,
      "ፕ": 334,
      "ፖ": 335,
      "፡": 336,
      "።": 337,
      "፣": 338,
      "፤": 339,
      "፥": 340,
      "፦": 341,
      "፧": 342,
      "‍": 343,
      "‑": 344,
      "–": 345,
      "—": 346,
      "‘": 347,
      "’": 348,
      "“": 349,
      "”": 350,
      "‟": 351,
      "•": 352,
      "≥": 353,
      "✓": 354,
      "an": 355,
      "in": 356,
      "er": 357,
      "on": 358,
      "th": 359,
      "al": 360,
      "en": 361,
      "ti": 362,
      "es": 363,
      "or": 364,
      "re": 365,
      "ku": 366,
      "is": 367,
      "ma": 368,
      "mu": 369,
      "at": 370,
      "ing": 371,
      "wa": 372,
      "and": 373,
      "ou": 374,
      "to": 375,
      "ed": 376,
      "as": 377,
      "ho": 378,
      "ir": 379,
      "bu": 380,
      "the": 381,
      "tion": 382,
      "ka": 383,
      "wɔ": 384,
      "ne": 385,
      "it": 386,
      "ya": 387,
      "de": 388,
      "na": 389,
      "om": 390,
      "se": 391,
      "ab": 392,
      "le": 393,
      "ar": 394,
      "of": 395,
      "di": 396,
      "si": 397,
      "am": 398,
      "ent": 399,
      "ic": 400,
      "he": 401,
      "pr": 402,
      "be": 403,
      "ol": 404,
      "ak": 405,
      "ac": 406,
      "ec": 407,
      "ad": 408,
      "oku": 409,
      "su": 410,
      "wi": 411,
      "no": 412,
      "tu": 413,
      "we": 414,
      "ve": 415,
      "so": 416,
      "yɛ": 417,
      "wo": 418,
      "for": 419,
      "wu": 420,
      "il": 421,
      "ta": 422,
      "are": 423,
      "ba": 424,
      "im": 425,
      "tr": 426,
      "you": 427,
      "can": 428,
      "za": 429,
      "ow": 430,
      "te": 431,
      "us": 432,
      "ha": 433,
      "ly": 434,
      "con": 435,
      "sɛ": 436,
      "pro": 437,
      "id": 438,
      "ana": 439,
      "ch": 440,
      "with": 441,
      "ye": 442,
      "li": 443,
      "ers": 444,
      "fec": 445,
      "ag": 446,
      "IV": 447,
      "HIV": 448,
      "ation": 449,
      "ah": 450,
      "mp": 451,
      "un": 452,
      "alth": 453,
      "ual": 454,
      "sex": 455,
      "zi": 456,
      "ul": 457,
      "du": 458,
      "ki": 459,
      "ce": 460,
      "era": 461,
      "health": 462,
      "bi": 463,
      "af": 464,
      "obu": 465,
      "ee": 466,
      "iri": 467,
      "ter": 468,
      "hi": 469,
      "mi": 470,
      "ina": 471,
      "ge": 472,
      "ere": 473,
      "lu": 474,
      "com": 475,
      "ess": 476,
      "bɛ": 477,
      "ga": 478,
      "pre": 479,
      "yi": 480,
      "infec": 481,
      "ms": 482,
      "me": 483,
      "ment": 484,
      "ans": 485,
      "est": 486,
      "that": 487,
      "out": 488,
      "tive": 489,
      "wan": 490,
      "ky": 491,
      "fo": 492,
      "orow": 493,
      "op": 494,
      "ate": 495,
      "bwa": 496,
      "your": 497,
      "wɔn": 498,
      "pa": 499,
      "mo": 500,
      "sexual": 501,
      "kwa": 502,
      "ala": 503,
      "od": 504,
      "ver": 505,
      "wuma": 506,
      "por": 507,
      "ur": 508,
      "vir": 509,
      "sy": 510,
      "ahorow": 511,
      "omu": 512,
      "wuka": 513,
      "gh": 514,
      "by": 515,
      "ase": 516,
      "ni": 517,
      "infection": 518,
      "ko": 519,
      "med": 520,
      "res": 521,
      "pe": 522,
      "erɛ": 523,
      "fr": 524,
      "ity": 525,
      "ke": 526,
      "tumi": 527,
      "end": 528,
      "st": 529,
      "hyɛ": 530,
      "ola": 531,
      "fa": 532,
      "reat": 533,
      "have": 534,
      "la": 535,
      "pes": 536,
      "ted": 537,
      "ts": 538,
      "dis": 539,
      "ex": 540,
      "po": 541,
      "hat": 542,
      "gu": 543,
      "mma": 544,
      "vid": 545,
      "ama": 546,
      "gi": 547,
      "do": 548,
      "port": 549,
      "ali": 550,
      "eri": 551,
      "lo": 552,
      "vi": 553,
      "kawuka": 554,
      "par": 555,
      "ri": 556,
      "ny": 557,
      "treat": 558,
      "wɛ": 559,
      "test": 560,
      "ira": 561,
      "if": 562,
      "care": 563,
      "ll": 564,
      "ra": 565,
      "sa": 566,
      "imu": 567,
      "erpes": 568,
      "lam": 569,
      "ents": 570,
      "au": 571,
      "akal": 572,
      "ia": 573,
      "esc": 574,
      "ple": 575,
      "nk": 576,
      "iriimu": 577,
      "ok": 578,
      "inc": 579,
      "bo": 580,
      "from": 581,
      "wh": 582,
      "wɔde": 583,
      "Siriimu": 584,
      "eeta": 585,
      "sɛm": 586,
      "ces": 587,
      "not": 588,
      "about": 589,
      "ɛn": 590,
      "tions": 591,
      "fu": 592,
      "da": 593,
      "ng": 594,
      "akaleeta": 595,
      "sh": 596,
      "nh": 597,
      "mpto": 598,
      "kim": 599,
      "Th": 600,
      "ydi": 601,
      "lamydi": 602,
      "ci": 603,
      "nna": 604,
      "bun": 605,
      "kimwi": 606,
      "ap": 607,
      "The": 608,
      "our": 609,
      "ene": 610,
      "ant": 611,
      "qu": 612,
      "ting": 613,
      "ther": 614,
      "mptoms": 615,
      "Akawuka": 616,
      "olesc": 617,
      "ine": 618,
      "gn": 619,
      "ek": 620,
      "kwan": 621,
      "hu": 622,
      "mon": 623,
      "may": 624,
      "hwɛ": 625,
      "pec": 626,
      "trans": 627,
      "ations": 628,
      "all": 629,
      "man": 630,
      "kyerɛ": 631,
      "ph": 632,
      "aho": 633,
      "go": 634,
      "symptoms": 635,
      "anaa": 636,
      "oun": 637,
      "inclu": 638,
      "bw": 639,
      "ome": 640,
      "san": 641,
      "betumi": 642,
      "their": 643,
      "nsɛm": 644,
      "ST": 645,
      "yehyɛ": 646,
      "medic": 647,
      "ty": 648,
      "one": 649,
      "asa": 650,
      "usi": 651,
      "transm": 652,
      "ital": 653,
      "adolesc": 654,
      "What": 655,
      "sup": 656,
      "lamydia": 657,
      "duc": 658,
      "STI": 659,
      "mmabun": 660,
      "cy": 661,
      "In": 662,
      "dwuma": 663,
      "den": 664,
      "gy": 665,
      "ano": 666,
      "ps": 667,
      "able": 668,
      "gr": 669,
      "fer": 670,
      "ven": 671,
      "jj": 672,
      "yo": 673,
      "bola": 674,
      "oba": 675,
      "ten": 676,
      "ris": 677,
      "gen": 678,
      "thr": 679,
      "get": 680,
      "mm": 681,
      "pl": 682,
      "tec": 683,
      "pers": 684,
      "part": 685,
      "akwa": 686,
      "ld": 687,
      "anya": 688,
      "ally": 689,
      "nga": 690,
      "sion": 691,
      "act": 692,
      "va": 693,
      "ari": 694,
      "ring": 695,
      "acc": 696,
      "tic": 697,
      "It": 698,
      "hosan": 699,
      "neɛ": 700,
      "treatment": 701,
      "aba": 702,
      "adolescents": 703,
      "yehyɛe": 704,
      "vya": 705,
      "ata": 706,
      "bɔ": 707,
      "some": 708,
      "If": 709,
      "fe": 710,
      "virusi": 711,
      "akwahosan": 712,
      "provid": 713,
      "ding": 714,
      "risk": 715,
      "nhyehyɛe": 716,
      "isi": 717,
      "support": 718,
      "healthcare": 719,
      "ving": 720,
      "pi": 721,
      "ble": 722,
      "mun": 723,
      "awo": 724,
      "ough": 725,
      "Ch": 726,
      "person": 727,
      "hɔ": 728,
      "ef": 729,
      "ilis": 730,
      "sel": 731,
      "ence": 732,
      "partn": 733,
      "philis": 734,
      "How": 735,
      "wer": 736,
      "ese": 737,
      "okwe": 738,
      "ous": 739,
      "oc": 740,
      "This": 741,
      "any": 742,
      "ople": 743,
      "orr": 744,
      "vic": 745,
      "also": 746,
      "ani": 747,
      "ze": 748,
      "zo": 749,
      "herpes": 750,
      "inga": 751,
      "moa": 752,
      "onorr": 753,
      "who": 754,
      "eng": 755,
      "ong": 756,
      "tan": 757,
      "pri": 758,
      "during": 759,
      "virus": 760,
      "enti": 761,
      "em": 762,
      "produc": 763,
      "dom": 764,
      "),": 765,
      "adi": 766,
      "tam": 767,
      "eb": 768,
      "str": 769,
      "ili": 770,
      "ties": 771,
      "wɔbɛ": 772,
      "wehwɛ": 773,
      "cau": 774,
      "transmit": 775,
      "sure": 776,
      "Herpes": 777,
      "now": 778,
      "ould": 779,
      "fic": 780,
      "ors": 781,
      "adw": 782,
      "dr": 783,
      "hea": 784,
      "Pr": 785,
      "ful": 786,
      "rec": 787,
      "ns": 788,
      "ated": 789,
      "contr": 790,
      "has": 791,
      "they": 792,
      "atu": 793,
      "nn": 794,
      "ser": 795,
      "wor": 796,
      "mmoa": 797,
      "beera": 798,
      "acti": 799,
      "indi": 800,
      "know": 801,
      "aso": 802,
      "infor": 803,
      "tak": 804,
      "adwuma": 805,
      "abi": 806,
      "ini": 807,
      "asɛ": 808,
      "weza": 809,
      "abu": 810,
      "wom": 811,
      "pregn": 812,
      "people": 813,
      "rel": 814,
      "cause": 815,
      "gat": 816,
      "ary": 817,
      "hel": 818,
      "ako": 819,
      "peri": 820,
      "onorrhea": 821,
      "Ukimwi": 822,
      "vent": 823,
      "productive": 824,
      "tis": 825,
      "answer": 826,
      "uc": 827,
      "through": 828,
      "medical": 829,
      "ukimwi": 830,
      "neɛma": 831,
      "please": 832,
      "cu": 833,
      "way": 834,
      "using": 835,
      "this": 836,
      "when": 837,
      "ody": 838,
      "import": 839,
      "but": 840,
      "ber": 841,
      "such": 842,
      "isa": 843,
      "ebi": 844,
      "reproductive": 845,
      "vidual": 846,
      "transmitted": 847,
      "ua": 848,
      "protec": 849,
      "nea": 850,
      "ves": 851,
      "age": 852,
      "body": 853,
      "genital": 854,
      "asi": 855,
      "nti": 856,
      "mba": 857,
      "ɛfa": 858,
      "chan": 859,
      "gyina": 860,
      "dde": 861,
      "adwene": 862,
      "use": 863,
      "cial": 864,
      "ill": 865,
      ").": 866,
      "individual": 867,
      "ono": 868,
      "kw": 869,
      "vag": 870,
      "ore": 871,
      "ques": 872,
      "prevent": 873,
      "need": 874,
      "ace": 875,
      "pati": 876,
      "gatta": 877,
      "condom": 878,
      "ght": 879,
      "ound": 880,
      "ance": 881,
      "ati": 882,
      "ambu": 883,
      "der": 884,
      "important": 885,
      "cont": 886,
      "chlamydia": 887,
      "sitive": 888,
      "vices": 889,
      "bɛn": 890,
      "yin": 891,
      "men": 892,
      "Vir": 893,
      "vel": 894,
      "biri": 895,
      "partner": 896,
      "?,": 897,
      "spec": 898,
      "anj": 899,
      "cer": 900,
      "pain": 901,
      "low": 902,
      "should": 903,
      "ɛyɛ": 904,
      "esi": 905,
      "akwan": 906,
      "help": 907,
      "olu": 908,
      "commun": 909,
      "cho": 910,
      "kati": 911,
      "afe": 912,
      "infections": 913,
      "STIs": 914,
      "kin": 915,
      "mation": 916,
      "ID": 917,
      "ich": 918,
      "bea": 919,
      "other": 920,
      "ban": 921,
      "fee": 922,
      "Gen": 923,
      "kola": 924,
      "services": 925,
      "nneɛma": 926,
      "inal": 927,
      "lamu": 928,
      "ca": 929,
      "EP": 930,
      "bere": 931,
      "ambuki": 932,
      "pen": 933,
      "ist": 934,
      "inter": 935,
      "org": 936,
      "there": 937,
      "syphilis": 938,
      "ass": 939,
      "oro": 940,
      "wadde": 941,
      "my": 942,
      "disc": 943,
      "per": 944,
      "Chlamydia": 945,
      "jjanj": 946,
      "like": 947,
      "vu": 948,
      "flu": 949,
      "king": 950,
      "including": 951,
      "idi": 952,
      "tain": 953,
      "bac": 954,
      "kis": 955,
      "ultu": 956,
      "kɔ": 957,
      "omun": 958,
      "ara": 959,
      "red": 960,
      "aman": 961,
      "ji": 962,
      "how": 963,
      "ja": 964,
      "He": 965,
      "ank": 966,
      "very": 967,
      "educ": 968,
      "uka": 969,
      "ach": 970,
      "ro": 971,
      "yinza": 972,
      "alina": 973,
      "um": 974,
      "pres": 975,
      "HS": 976,
      "self": 977,
      "Tr": 978,
      "treated": 979,
      "ons": 980,
      "won": 981,
      "mpɔ": 982,
      "Obu": 983,
      "cur": 984,
      "wana": 985,
      "omuntu": 986,
      "ily": 987,
      "ility": 988,
      "eki": 989,
      "effec": 990,
      "after": 991,
      "used": 992,
      "kulu": 993,
      "HSV": 994,
      "gye": 995,
      "over": 996,
      "deɛ": 997,
      "kur": 998,
      "ey": 999,
      "dise": 1000,
      "foɔ": 1001,
      "Sy": 1002,
      "information": 1003,
      "safe": 1004,
      "Ad": 1005,
      "AID": 1006,
      "AIDS": 1007,
      "ste": 1008,
      "lead": 1009,
      "Oku": 1010,
      "question": 1011,
      "ating": 1012,
      "reg": 1013,
      "ential": 1014,
      "pɛn": 1015,
      "pregnan": 1016,
      "ungi": 1017,
      "ain": 1018,
      "acy": 1019,
      "lin": 1020,
      "kuwa": 1021,
      "include": 1022,
      "infected": 1023,
      "testing": 1024,
      "ission": 1025,
      "bre": 1026,
      "well": 1027,
      "ild": 1028,
      "nya": 1029,
      "adv": 1030,
      "adwumayɛ": 1031,
      "simp": 1032,
      "gend": 1033,
      "vo": 1034,
      "does": 1035,
      "velop": 1036,
      "abo": 1037,
      "bab": 1038,
      "provider": 1039,
      "coun": 1040,
      "ences": 1041,
      "positive": 1042,
      "anti": 1043,
      "vaginal": 1044,
      "being": 1045,
      "ationshi": 1046,
      "individuals": 1047,
      "itaho": 1048,
      "experi": 1049,
      "up": 1050,
      "work": 1051,
      "koz": 1052,
      "pread": 1053,
      "simple": 1054,
      "ayɛ": 1055,
      "sɛn": 1056,
      "hia": 1057,
      "mal": 1058,
      "tional": 1059,
      "aban": 1060,
      "una": 1061,
      "cultu": 1062,
      "esa": 1063,
      "die": 1064,
      "ular": 1065,
      "relationshi": 1066,
      "obul": 1067,
      "ources": 1068,
      "awa": 1069,
      "time": 1070,
      "access": 1071,
      "isha": 1072,
      "omo": 1073,
      "amu": 1074,
      "emp": 1075,
      "aka": 1076,
      "pregnancy": 1077,
      "zu": 1078,
      "disease": 1079,
      "will": 1080,
      "feel": 1081,
      "tibwa": 1082,
      "which": 1083,
      "Gonorrhea": 1084,
      "spread": 1085,
      "known": 1086,
      "nkur": 1087,
      "Ho": 1088,
      "media": 1089,
      "sexually": 1090,
      "develop": 1091,
      "sti": 1092,
      "dif": 1093,
      "Can": 1094,
      "sobola": 1095,
      "tail": 1096,
      "bir": 1097,
      "pu": 1098,
      "ning": 1099,
      "funa": 1100,
      "ges": 1101,
      "AR": 1102,
      "ear": 1103,
      "Re": 1104,
      "transmission": 1105,
      "contact": 1106,
      "vention": 1107,
      "condoms": 1108,
      "jjanjabi": 1109,
      "more": 1110,
      "bwe": 1111,
      "edi": 1112,
      "vide": 1113,
      "cre": 1114,
      "healthy": 1115,
      "ination": 1116,
      "baby": 1117,
      "nne": 1118,
      "mmu": 1119,
      "lee": 1120,
      "education": 1121,
      "kwe": 1122,
      "mar": 1123,
      "bas": 1124,
      "ori": 1125,
      "nkɔ": 1126,
      "afo": 1127,
      "nyin": 1128,
      "conf": 1129,
      "vol": 1130,
      "als": 1131,
      "patitis": 1132,
      "sor": 1133,
      "mpɔtam": 1134,
      "agala": 1135,
      "val": 1136,
      "mmerɛ": 1137,
      "ez": 1138,
      "inaa": 1139,
      "long": 1140,
      "amba": 1141,
      "eera": 1142,
      "kuu": 1143,
      "someone": 1144,
      "fi": 1145,
      "women": 1146,
      "ys": 1147,
      "og": 1148,
      "without": 1149,
      "hile": 1150,
      "void": 1151,
      "cons": 1152,
      "nkitaho": 1153,
      "undu": 1154,
      "icho": 1155,
      "terms": 1156,
      "himu": 1157,
      "edd": 1158,
      "gns": 1159,
      "fam": 1160,
      "asɛm": 1161,
      "hwehwɛ": 1162,
      "common": 1163,
      "abantu": 1164,
      "tee": 1165,
      "sing": 1166,
      "ongo": 1167,
      "oral": 1168,
      "pos": 1169,
      "Virus": 1170,
      "ders": 1171,
      "wee": 1172,
      "sta": 1173,
      "tand": 1174,
      "blo": 1175,
      "muhimu": 1176,
      "susu": 1177,
      "boa": 1178,
      "progr": 1179,
      "afya": 1180,
      "ichomon": 1181,
      "aky": 1182,
      "detail": 1183,
      "asobola": 1184,
      "acep": 1185,
      "sible": 1186,
      "kat": 1187,
      "sider": 1188,
      "dd": 1189,
      "char": 1190,
      "cisi": 1191,
      "abɔ": 1192,
      "saa": 1193,
      "aya": 1194,
      "getting": 1195,
      "provide": 1196,
      "these": 1197,
      "okwegatta": 1198,
      "ific": 1199,
      "tiba": 1200,
      "chall": 1201,
      "ency": 1202,
      "ral": 1203,
      "obulamu": 1204,
      "buto": 1205,
      "her": 1206,
      "sive": 1207,
      "mmɔ": 1208,
      "fici": 1209,
      "nyo": 1210,
      "appro": 1211,
      "often": 1212,
      "affec": 1213,
      "sen": 1214,
      "ea": 1215,
      "des": 1216,
      "itundu": 1217,
      "line": 1218,
      "them": 1219,
      "ods": 1220,
      "obi": 1221,
      "resources": 1222,
      "Syphilis": 1223,
      "contracep": 1224,
      "many": 1225,
      "sam": 1226,
      "Ki": 1227,
      "take": 1228,
      "tia": 1229,
      "its": 1230,
      "rect": 1231,
      "mental": 1232,
      "having": 1233,
      "child": 1234,
      "wever": 1235,
      "blood": 1236,
      "En": 1237,
      "omubiri": 1238,
      "You": 1239,
      "specific": 1240,
      "ero": 1241,
      "anyi": 1242,
      "ita": 1243,
      "cess": 1244,
      "pect": 1245,
      "bor": 1246,
      "Wɔ": 1247,
      "differ": 1248,
      "haw": 1249,
      "vity": 1250,
      "ende": 1251,
      "Is": 1252,
      "buli": 1253,
      "kwatibwa": 1254,
      "avoid": 1255,
      "ghts": 1256,
      "akawuka": 1257,
      "seek": 1258,
      "sua": 1259,
      "ungu": 1260,
      "fir": 1261,
      "meth": 1262,
      "እና": 1263,
      "redu": 1264,
      "ath": 1265,
      "promo": 1266,
      "zwa": 1267,
      "baga": 1268,
      "lab": 1269,
      "ct": 1270,
      "nyinsɛn": 1271,
      "ness": 1272,
      "bacter": 1273,
      "cal": 1274,
      "pic": 1275,
      "Ku": 1276,
      "Infec": 1277,
      "wen": 1278,
      "Yes": 1279,
      "yabaga": 1280,
      "mtu": 1281,
      "እን": 1282,
      "denam": 1283,
      "gg": 1284,
      "viral": 1285,
      "No": 1286,
      "ju": 1287,
      "wali": 1288,
      "plic": 1289,
      "decisi": 1290,
      "fluid": 1291,
      "kasa": 1292,
      "valu": 1293,
      "usu": 1294,
      "ngono": 1295,
      "Con": 1296,
      "ɛwɔ": 1297,
      "pon": 1298,
      "invol": 1299,
      "Ka": 1300,
      "et": 1301,
      "kyerɛkyerɛ": 1302,
      "advoc": 1303,
      "consider": 1304,
      "min": 1305,
      "hokwan": 1306,
      "derstand": 1307,
      "providers": 1308,
      "onga": 1309,
      "oth": 1310,
      "Je": 1311,
      "community": 1312,
      "effective": 1313,
      "nim": 1314,
      "አይ": 1315,
      "cr": 1316,
      "fin": 1317,
      "They": 1318,
      "kuto": 1319,
      "ult": 1320,
      "defici": 1321,
      "ams": 1322,
      "charge": 1323,
      "ability": 1324,
      "bon": 1325,
      "itu": 1326,
      "deficiency": 1327,
      "practi": 1328,
      "nodeficiency": 1329,
      "social": 1330,
      "obw": 1331,
      "aniza": 1332,
      "asis": 1333,
      "SR": 1334,
      "kyuka": 1335,
      "okuba": 1336,
      "jja": 1337,
      "sores": 1338,
      "Hu": 1339,
      "life": 1340,
      "ava": 1341,
      "gira": 1342,
      "where": 1343,
      "ments": 1344,
      "Wh": 1345,
      "posure": 1346,
      "ɛm": 1347,
      "iasis": 1348,
      "tested": 1349,
      "katika": 1350,
      "ichomoniasis": 1351,
      "partners": 1352,
      "tests": 1353,
      "lamydial": 1354,
      "cle": 1355,
      "nni": 1356,
      "birth": 1357,
      "cour": 1358,
      "pla": 1359,
      "reduce": 1360,
      "vacc": 1361,
      "However": 1362,
      "ast": 1363,
      "PrEP": 1364,
      "bin": 1365,
      "concer": 1366,
      "rights": 1367,
      "matiba": 1368,
      "matibabu": 1369,
      "SRH": 1370,
      "mana": 1371,
      "leeta": 1372,
      "table": 1373,
      "aku": 1374,
      "okuva": 1375,
      "seri": 1376,
      "kup": 1377,
      "ችላ": 1378,
      "nkuran": 1379,
      "okus": 1380,
      "nnwuma": 1381,
      "make": 1382,
      "ication": 1383,
      "fac": 1384,
      "onj": 1385,
      "understand": 1386,
      "mul": 1387,
      "ings": 1388,
      "amanneɛ": 1389,
      "ezi": 1390,
      "wobɛ": 1391,
      "pɛ": 1392,
      "discharge": 1393,
      "dress": 1394,
      "okufuna": 1395,
      "cep": 1396,
      "mea": 1397,
      "ahu": 1398,
      "iso": 1399,
      "skin": 1400,
      "twe": 1401,
      "priv": 1402,
      "nor": 1403,
      "prevention": 1404,
      "pol": 1405,
      "eby": 1406,
      "confid": 1407,
      "har": 1408,
      "gonorrhea": 1409,
      "sur": 1410,
      "Mma": 1411,
      "fact": 1412,
      "what": 1413,
      "fata": 1414,
      "ies": 1415,
      "been": 1416,
      "challeng": 1417,
      "tra": 1418,
      "mɔ": 1419,
      "woo": 1420,
      "main": 1421,
      "ollow": 1422,
      "kya": 1423,
      "col": 1424,
      "anizations": 1425,
      "mother": 1426,
      "while": 1427,
      "ite": 1428,
      "havi": 1429,
      "enya": 1430,
      "okukwatibwa": 1431,
      "fri": 1432,
      "syste": 1433,
      "bal": 1434,
      "avail": 1435,
      "homa": 1436,
      "signs": 1437,
      "ults": 1438,
      "gender": 1439,
      "Sɛ": 1440,
      "kiwa": 1441,
      "chool": 1442,
      "amammerɛ": 1443,
      "mem": 1444,
      "ved": 1445,
      "These": 1446,
      "anim": 1447,
      "detec": 1448,
      "ways": 1449,
      "zibwa": 1450,
      "emo": 1451,
      "relationships": 1452,
      "uli": 1453,
      "types": 1454,
      "discus": 1455,
      "friend": 1456,
      "pass": 1457,
      "grou": 1458,
      "different": 1459,
      "ical": 1460,
      "gw": 1461,
      "open": 1462,
      "ure": 1463,
      "Genital": 1464,
      "counsel": 1465,
      "okuk": 1466,
      "PEP": 1467,
      "bl": 1468,
      "ug": 1469,
      "soci": 1470,
      "comm": 1471,
      "uru": 1472,
      "both": 1473,
      "related": 1474,
      "kozesa": 1475,
      "Ex": 1476,
      "living": 1477,
      "ነት": 1478,
      "inaweza": 1479,
      "kuna": 1480,
      "programs": 1481,
      "others": 1482,
      "less": 1483,
      "oforo": 1484,
      "nimdeɛ": 1485,
      "Immu": 1486,
      "only": 1487,
      "appe": 1488,
      "protect": 1489,
      "eddagala": 1490,
      "comfor": 1491,
      "fore": 1492,
      "respect": 1493,
      "Health": 1494,
      "address": 1495,
      "follow": 1496,
      "watu": 1497,
      "nities": 1498,
      "int": 1499,
      "tial": 1500,
      "Immunodeficiency": 1501,
      "zed": 1502,
      "Ne": 1503,
      "occur": 1504,
      "yɛe": 1505,
      "organizations": 1506,
      "br": 1507,
      "katyabaga": 1508,
      "pend": 1509,
      "ነው": 1510,
      "yare": 1511,
      "kana": 1512,
      "mmara": 1513,
      "ART": 1514,
      "Pre": 1515,
      "kaba": 1516,
      "behavi": 1517,
      "atus": 1518,
      "first": 1519,
      "pregnant": 1520,
      "onjwa": 1521,
      "Wo": 1522,
      "yiza": 1523,
      "ufu": 1524,
      "onna": 1525,
      "again": 1526,
      "Kawuka": 1527,
      "apɔ": 1528,
      "Do": 1529,
      "anaasɛ": 1530,
      "phy": 1531,
      "Pro": 1532,
      "based": 1533,
      "possible": 1534,
      "bonero": 1535,
      "tro": 1536,
      "pene": 1537,
      "koko": 1538,
      "ambukizi": 1539,
      "arri": 1540,
      "most": 1541,
      "mfo": 1542,
      "within": 1543,
      "ɛfata": 1544,
      "ambukizwa": 1545,
      "nneyɛe": 1546,
      "term": 1547,
      "Com": 1548,
      "inary": 1549,
      "essential": 1550,
      "There": 1551,
      "respon": 1552,
      "factors": 1553,
      "cor": 1554,
      "mbeera": 1555,
      "active": 1556,
      "nhwehwɛ": 1557,
      "00": 1558,
      "gin": 1559,
      "plications": 1560,
      "ish": 1561,
      "bul": 1562,
      "mf": 1563,
      "aring": 1564,
      "ammɔ": 1565,
      "guid": 1566,
      "enn": 1567,
      "nnyo": 1568,
      "amanneɛbɔ": 1569,
      "gir": 1570,
      "practices": 1571,
      "ane": 1572,
      "Chlamydial": 1573,
      "ahyɛ": 1574,
      "ይችላ": 1575,
      "anal": 1576,
      "week": 1577,
      "high": 1578,
      "co": 1579,
      "consent": 1580,
      "proble": 1581,
      "Human": 1582,
      "uses": 1583,
      "nkyerɛkyerɛ": 1584,
      "ills": 1585,
      "contraception": 1586,
      "vari": 1587,
      "ziyiza": 1588,
      "horow": 1589,
      "til": 1590,
      "status": 1591,
      "nhwehwɛmu": 1592,
      "nt": 1593,
      "caused": 1594,
      "nyinaa": 1595,
      "polic": 1596,
      "enkola": 1597,
      "family": 1598,
      "regular": 1599,
      "ens": 1600,
      "needs": 1601,
      "concerns": 1602,
      "ession": 1603,
      "school": 1604,
      "offer": 1605,
      "okuku": 1606,
      "plex": 1607,
      "bacteria": 1608,
      "abusu": 1609,
      "afotu": 1610,
      "ofo": 1611,
      "berty": 1612,
      "wal": 1613,
      "imp": 1614,
      "nkitahodi": 1615,
      "available": 1616,
      "Ni": 1617,
      "aboa": 1618,
      "mmea": 1619,
      "embeera": 1620,
      "qui": 1621,
      "break": 1622,
      "zuia": 1623,
      "obujjanjabi": 1624,
      "nte": 1625,
      "poten": 1626,
      "appear": 1627,
      "guidance": 1628,
      "gal": 1629,
      "HP": 1630,
      "les": 1631,
      "untreated": 1632,
      "HPV": 1633,
      "Eki": 1634,
      "kokoam": 1635,
      "bur": 1636,
      "የሚ": 1637,
      "yamba": 1638,
      "cultural": 1639,
      "eding": 1640,
      "wat": 1641,
      "zing": 1642,
      "side": 1643,
      "Here": 1644,
      "system": 1645,
      "cell": 1646,
      "ɛka": 1647,
      "Ɔkwan": 1648,
      "communication": 1649,
      "vers": 1650,
      "pad": 1651,
      "ami": 1652,
      "trus": 1653,
      "eness": 1654,
      "ines": 1655,
      "hatari": 1656,
      "kye": 1657,
      "even": 1658,
      "depend": 1659,
      "ngeri": 1660,
      "yia": 1661,
      "puberty": 1662,
      "Fa": 1663,
      "outh": 1664,
      "siw": 1665,
      "ck": 1666,
      "buka": 1667,
      "present": 1668,
      "Your": 1669,
      "uma": 1670,
      "singa": 1671,
      "ases": 1672,
      "zibu": 1673,
      "ss": 1674,
      "akɔ": 1675,
      "ayares": 1676,
      "ls": 1677,
      "gma": 1678,
      "online": 1679,
      "bammɔ": 1680,
      "prof": 1681,
      "exposure": 1682,
      "iro": 1683,
      "muden": 1684,
      "sig": 1685,
      "immu": 1686,
      "Genit": 1687,
      "IM": 1688,
      "ster": 1689,
      "peer": 1690,
      "nnipa": 1691,
      "own": 1692,
      "ourinary": 1693,
      "ensure": 1694,
      "tebea": 1695,
      "Genitourinary": 1696,
      "tal": 1697,
      "ose": 1698,
      "usa": 1699,
      "akyerɛ": 1700,
      "confidential": 1701,
      "WI": 1702,
      "ds": 1703,
      "UK": 1704,
      "IMWI": 1705,
      "UKIMWI": 1706,
      "vyo": 1707,
      "sawo": 1708,
      "activity": 1709,
      "art": 1710,
      "problems": 1711,
      "issu": 1712,
      "atipɛn": 1713,
      "making": 1714,
      "was": 1715,
      "call": 1716,
      "kiseera": 1717,
      "bɛma": 1718,
      "yam": 1719,
      "changes": 1720,
      "dwa": 1721,
      "fun": 1722,
      "medicine": 1723,
      "ars": 1724,
      "ɛma": 1725,
      "recomm": 1726,
      "recommend": 1727,
      "before": 1728,
      "agno": 1729,
      "cure": 1730,
      "into": 1731,
      "Pe": 1732,
      "every": 1733,
      "sis": 1734,
      "kama": 1735,
      "sk": 1736,
      "ory": 1737,
      "abusuabɔ": 1738,
      "ɛt": 1739,
      "obulungi": 1740,
      "against": 1741,
      "Infection": 1742,
      "pɔ": 1743,
      "padua": 1744,
      "mouth": 1745,
      "hepatitis": 1746,
      "drug": 1747,
      "Virusi": 1748,
      "identi": 1749,
      "born": 1750,
      "right": 1751,
      "Ac": 1752,
      "priate": 1753,
      "ddala": 1754,
      "kir": 1755,
      "deli": 1756,
      "qual": 1757,
      "ingi": 1758,
      "Hepatitis": 1759,
      "Trichomoniasis": 1760,
      "tes": 1761,
      "ይም": 1762,
      "escri": 1763,
      "mis": 1764,
      "bio": 1765,
      "gonjwa": 1766,
      "aw": 1767,
      "Ekikaba": 1768,
      "kiri": 1769,
      "ምን": 1770,
      "okul": 1771,
      "causes": 1772,
      "back": 1773,
      "py": 1774,
      "ASRH": 1775,
      "cannot": 1776,
      "nkɔmmɔ": 1777,
      "multi": 1778,
      "gies": 1779,
      "complications": 1780,
      "wob": 1781,
      "sharing": 1782,
      "wakati": 1783,
      "ahobammɔ": 1784,
      "diagno": 1785,
      "akra": 1786,
      "sɛnea": 1787,
      "tanɛt": 1788,
      "vere": 1789,
      "wab": 1790,
      "nsonga": 1791,
      "aa": 1792,
      "jia": 1793,
      "ise": 1794,
      "maambukizi": 1795,
      "new": 1796,
      "Kir": 1797,
      "ɛse": 1798,
      "personal": 1799,
      "So": 1800,
      "wɔyɛ": 1801,
      "might": 1802,
      "led": 1803,
      "ቶች": 1804,
      "anus": 1805,
      "mara": 1806,
      "sp": 1807,
      "orank": 1808,
      "afi": 1809,
      "ino": 1810,
      "nka": 1811,
      "sever": 1812,
      "appropriate": 1813,
      "kwamba": 1814,
      "obuleeta": 1815,
      "ently": 1816,
      "hali": 1817,
      "forms": 1818,
      "human": 1819,
      "sample": 1820,
      "Mmabun": 1821,
      "lwadde": 1822,
      "nsu": 1823,
      "ዎች": 1824,
      "protected": 1825,
      "emotional": 1826,
      "incre": 1827,
      "Adolesc": 1828,
      "jec": 1829,
      "ida": 1830,
      "ond": 1831,
      "Kikulu": 1832,
      "teɛ": 1833,
      "iddwa": 1834,
      "gyinapɛn": 1835,
      "jawu": 1836,
      "ወይም": 1837,
      "profession": 1838,
      "Sim": 1839,
      "eye": 1840,
      "severe": 1841,
      "dɛn": 1842,
      "anny": 1843,
      "penis": 1844,
      "ching": 1845,
      "issues": 1846,
      "called": 1847,
      "orankoro": 1848,
      "jawulo": 1849,
      "groups": 1850,
      "weeks": 1851,
      "than": 1852,
      "type": 1853,
      "olubuto": 1854,
      "experiences": 1855,
      "husu": 1856,
      "ɛho": 1857,
      "eza": 1858,
      "member": 1859,
      "doct": 1860,
      "vary": 1861,
      "sul": 1862,
      "tum": 1863,
      "aging": 1864,
      "yiy": 1865,
      "signi": 1866,
      "Some": 1867,
      "cir": 1868,
      "cent": 1869,
      "ɔfo": 1870,
      "methods": 1871,
      "aga": 1872,
      "influ": 1873,
      "sukuu": 1874,
      "exam": 1875,
      "Test": 1876,
      "ree": 1877,
      "Kiram": 1878,
      "several": 1879,
      "come": 1880,
      "anis": 1881,
      "physi": 1882,
      "best": 1883,
      "kɛse": 1884,
      "imba": 1885,
      "informed": 1886,
      "cured": 1887,
      "adwumayɛfo": 1888,
      "aries": 1889,
      "saayi": 1890,
      "atal": 1891,
      "wɔfa": 1892,
      "adolescent": 1893,
      "signific": 1894,
      "nipadua": 1895,
      "stu": 1896,
      "Be": 1897,
      "lw": 1898,
      "mes": 1899,
      "wako": 1900,
      "abasa": 1901,
      "idiya": 1902,
      "ob": 1903,
      "normal": 1904,
      "Kiramidiya": 1905,
      "nkɔso": 1906,
      "nkola": 1907,
      "pii": 1908,
      "manage": 1909,
      "betwe": 1910,
      "between": 1911,
      "strate": 1912,
      "promote": 1913,
      "had": 1914,
      "magonjwa": 1915,
      "bera": 1916,
      "Obulwadde": 1917,
      "Adolescents": 1918,
      "bulamu": 1919,
      "eɛ": 1920,
      "kupi": 1921,
      "nhyehyɛeɛ": 1922,
      "serious": 1923,
      "atipɛnfo": 1924,
      "significant": 1925,
      "biara": 1926,
      "mwa": 1927,
      "dwumadie": 1928,
      "non": 1929,
      "wala": 1930,
      "lax": 1931,
      "cha": 1932,
      "ormon": 1933,
      "relationship": 1934,
      "reness": 1935,
      "awoɔ": 1936,
      "ction": 1937,
      "vagina": 1938,
      "inzi": 1939,
      "kyala": 1940,
      "emu": 1941,
      "ling": 1942,
      "stigma": 1943,
      "kuzuia": 1944,
      "fluids": 1945,
      "ኤች": 1946,
      "biotic": 1947,
      "zaala": 1948,
      "saasa": 1949,
      "cru": 1950,
      "esebwa": 1951,
      "painful": 1952,
      "tangira": 1953,
      "fy": 1954,
      "ahyehyɛ": 1955,
      "hy": 1956,
      "share": 1957,
      "dwumadi": 1958,
      "muntu": 1959,
      "experience": 1960,
      "ger": 1961,
      "ost": 1962,
      "outbreak": 1963,
      "works": 1964,
      "reli": 1965,
      "challenges": 1966,
      "LG": 1967,
      "kasɛm": 1968,
      "retro": 1969,
      "hap": 1970,
      "kuj": 1971,
      "beli": 1972,
      "unprotected": 1973,
      "tance": 1974,
      "enye": 1975,
      "mean": 1976,
      "dition": 1977,
      "ahwɛ": 1978,
      "kebera": 1979,
      "potential": 1980,
      "thro": 1981,
      "affect": 1982,
      "decision": 1983,
      "yama": 1984,
      "yako": 1985,
      "ced": 1986,
      "clin": 1987,
      "primar": 1988,
      "cers": 1989,
      "ishi": 1990,
      "isobola": 1991,
      "set": 1992,
      "cei": 1993,
      "oundaries": 1994,
      "kus": 1995,
      "engage": 1996,
      "vanny": 1997,
      "vannyuma": 1998,
      "thera": 1999,
      "aki": 2000,
      "crucial": 2001,
      "wɔwɔ": 2002,
      "legal": 2003,
      "burning": 2004,
      "swab": 2005,
      "Sex": 2006,
      "ɔkwan": 2007,
      "maisha": 2008,
      "ankorankoro": 2009,
      "ከላ": 2010,
      "days": 2011,
      "throat": 2012,
      "uri": 2013,
      "Simplex": 2014,
      "situ": 2015,
      "duma": 2016,
      "gative": 2017,
      "Un": 2018,
      "years": 2019,
      "circu": 2020,
      "amo": 2021,
      "isters": 2022,
      "retroviral": 2023,
      "lim": 2024,
      "wonya": 2025,
      "hyia": 2026,
      "trac": 2027,
      "ibu": 2028,
      "enjawulo": 2029,
      "Mu": 2030,
      "vaccine": 2031,
      "still": 2032,
      "bra": 2033,
      "dama": 2034,
      "lit": 2035,
      "olo": 2036,
      "portu": 2037,
      "usually": 2038,
      "control": 2039,
      "earch": 2040,
      "nsusu": 2041,
      "okukola": 2042,
      "wii": 2043,
      "endera": 2044,
      "correct": 2045,
      "NA": 2046,
      "ikiwa": 2047,
      "onom": 2048,
      "ila": 2049,
      "ep": 2050,
      "ሽታ": 2051,
      "yana": 2052,
      "zzi": 2053,
      "plan": 2054,
      "endeeza": 2055,
      "skills": 2056,
      "sika": 2057,
      "ith": 2058,
      "ates": 2059,
      "various": 2060,
      "strategies": 2061,
      "ower": 2062,
      "ula": 2063,
      "isipi": 2064,
      "ilities": 2065,
      "Kisipi": 2066,
      "research": 2067,
      "njia": 2068,
      "tives": 2069,
      "ebetumi": 2070,
      "uku": 2071,
      "abalina": 2072,
      "wobetumi": 2073,
      "rim": 2074,
      "agana": 2075,
      "afoforo": 2076,
      "antibiotic": 2077,
      "yita": 2078,
      "anso": 2079,
      "naye": 2080,
      "ide": 2081,
      "ይችላል": 2082,
      "ade": 2083,
      "che": 2084,
      "Ma": 2085,
      "comes": 2086,
      "fanya": 2087,
      "abor": 2088,
      "Res": 2089,
      "tice": 2090,
      "munities": 2091,
      "negative": 2092,
      "among": 2093,
      "Dɛn": 2094,
      "wasi": 2095,
      "ቸው": 2096,
      "urine": 2097,
      "vice": 2098,
      "steps": 2099,
      "comfort": 2100,
      "pas": 2101,
      "taking": 2102,
      "reduc": 2103,
      "vities": 2104,
      "kozesebwa": 2105,
      "bitundu": 2106,
      "zinaa": 2107,
      "tiri": 2108,
      "ARV": 2109,
      "lan": 2110,
      "ures": 2111,
      "accur": 2112,
      "protection": 2113,
      "boundaries": 2114,
      "adde": 2115,
      "sikasɛm": 2116,
      "ada": 2117,
      "change": 2118,
      "communities": 2119,
      "discrim": 2120,
      "ial": 2121,
      "ades": 2122,
      "jjo": 2123,
      "awareness": 2124,
      "vubuka": 2125,
      "development": 2126,
      "kan": 2127,
      "ግን": 2128,
      "recei": 2129,
      "adwenem": 2130,
      "decisions": 2131,
      "immune": 2132,
      "clinic": 2133,
      "options": 2134,
      "okw": 2135,
      "atumi": 2136,
      "preventing": 2137,
      "course": 2138,
      "Bu": 2139,
      "yourself": 2140,
      "early": 2141,
      "apɔw": 2142,
      "role": 2143,
      "ot": 2144,
      "በሽታ": 2145,
      "yiye": 2146,
      "impact": 2147,
      "dhi": 2148,
      "two": 2149,
      "clo": 2150,
      "sto": 2151,
      "kuambukizwa": 2152,
      "bantu": 2153,
      "typic": 2154,
      "counseling": 2155,
      "topic": 2156,
      "ahia": 2157,
      "nsakra": 2158,
      "):": 2159,
      "okubeera": 2160,
      "ths": 2161,
      "ato": 2162,
      "abs": 2163,
      "cip": 2164,
      "another": 2165,
      "hye": 2166,
      "zina": 2167,
      "regar": 2168,
      "understanding": 2169,
      "initi": 2170,
      "ue": 2171,
      "because": 2172,
      "delivery": 2173,
      "nokwa": 2174,
      "lira": 2175,
      "Obuwuka": 2176,
      "kikulu": 2177,
      "opportu": 2178,
      "ekyama": 2179,
      "play": 2180,
      "kuku": 2181,
      "around": 2182,
      "certain": 2183,
      "barri": 2184,
      "multiple": 2185,
      "bility": 2186,
      "youth": 2187,
      "menstr": 2188,
      "gital": 2189,
      "consul": 2190,
      "activities": 2191,
      "oluvannyuma": 2192,
      "kwata": 2193,
      "method": 2194,
      "impro": 2195,
      "ereza": 2196,
      "ntam": 2197,
      "private": 2198,
      "wɔka": 2199,
      "bari": 2200,
      "seeking": 2201,
      "cus": 2202,
      "war": 2203,
      "okukozesa": 2204,
      "ɛnt": 2205,
      "grow": 2206,
      "piira": 2207,
      "trusted": 2208,
      "Omu": 2209,
      "ws": 2210,
      "kuhusu": 2211,
      "alawo": 2212,
      "values": 2213,
      "accurate": 2214,
      "abea": 2215,
      "ref": 2216,
      "refer": 2217,
      "pressure": 2218,
      "bed": 2219,
      "hana": 2220,
      "When": 2221,
      "sii": 2222,
      "girls": 2223,
      "unguza": 2224,
      "jo": 2225,
      "alized": 2226,
      "eky": 2227,
      "hormon": 2228,
      "taa": 2229,
      "kwegatta": 2230,
      "Does": 2231,
      "uza": 2232,
      "omwana": 2233,
      "ebir": 2234,
      "ɛntɛn": 2235,
      "bulijjo": 2236,
      "People": 2237,
      "culture": 2238,
      "Are": 2239,
      "bwo": 2240,
      "ticip": 2241,
      "kira": 2242,
      "then": 2243,
      "ergen": 2244,
      "For": 2245,
      "maintain": 2246,
      "ɛbɛ": 2247,
      "akyi": 2248,
      "blisters": 2249,
      "ondomu": 2250,
      "afa": 2251,
      "viron": 2252,
      "clear": 2253,
      "ging": 2254,
      "nkate": 2255,
      "lower": 2256,
      "privacy": 2257,
      "mil": 2258,
      "ples": 2259,
      "ankasa": 2260,
      "kyukakyuka": 2261,
      "wode": 2262,
      "huduma": 2263,
      "choic": 2264,
      "barima": 2265,
      "olina": 2266,
      "stage": 2267,
      "ture": 2268,
      "Dis": 2269,
      "wɔadi": 2270,
      "harm": 2271,
      "awofo": 2272,
      "BV": 2273,
      "nhyɛ": 2274,
      "hatua": 2275,
      "manya": 2276,
      "feelings": 2277,
      "sexuality": 2278,
      "ner": 2279,
      "gious": 2280,
      "bleeding": 2281,
      "inziira": 2282,
      "mic": 2283,
      "ɛntɛnso": 2284,
      "mto": 2285,
      "ash": 2286,
      "undi": 2287,
      "parents": 2288,
      "biti": 2289,
      "therapy": 2290,
      "yira": 2291,
      "yaka": 2292,
      "ɛnyɛ": 2293,
      "risks": 2294,
      "discrimination": 2295,
      "don": 2296,
      "nso": 2297,
      "result": 2298,
      "genda": 2299,
      "nokware": 2300,
      ".\"": 2301,
      "ety": 2302,
      "Educ": 2303,
      "kyɛ": 2304,
      "form": 2305,
      "veness": 2306,
      "policies": 2307,
      "environ": 2308,
      "tiriw": 2309,
      "kal": 2310,
      "ayaresa": 2311,
      "omuli": 2312,
      "viol": 2313,
      "ለመ": 2314,
      "requ": 2315,
      "dies": 2316,
      "under": 2317,
      "idde": 2318,
      "See": 2319,
      "bɛhyɛ": 2320,
      "asetra": 2321,
      "amazzi": 2322,
      "abies": 2323,
      "advocacy": 2324,
      "navi": 2325,
      "happen": 2326,
      "inf": 2327,
      "obulwadde": 2328,
      "Sexual": 2329,
      "Sup": 2330,
      "sore": 2331,
      "uni": 2332,
      "mit": 2333,
      "rima": 2334,
      "behaviors": 2335,
      "ay": 2336,
      "suahu": 2337,
      "suppor": 2338,
      "eracy": 2339,
      "okum": 2340,
      "okut": 2341,
      "wulira": 2342,
      "ulcers": 2343,
      "areas": 2344,
      "Nneɛma": 2345,
      "cells": 2346,
      "sensitive": 2347,
      "process": 2348,
      "organis": 2349,
      "day": 2350,
      "wooza": 2351,
      "friends": 2352,
      "Al": 2353,
      "ensive": 2354,
      "teeka": 2355,
      "len": 2356,
      "ያስ": 2357,
      "Te": 2358,
      "show": 2359,
      "wɔanya": 2360,
      "labor": 2361,
      "laxis": 2362,
      "cing": 2363,
      "hon": 2364,
      "period": 2365,
      "recommended": 2366,
      "ahyehyɛde": 2367,
      "ɔhaw": 2368,
      "young": 2369,
      "advocate": 2370,
      "Provid": 2371,
      "20": 2372,
      "tely": 2373,
      "tility": 2374,
      "wobenya": 2375,
      "BT": 2376,
      "priori": 2377,
      "doctor": 2378,
      "cop": 2379,
      "egyina": 2380,
      "digital": 2381,
      "creen": 2382,
      "ogni": 2383,
      "Med": 2384,
      "lines": 2385,
      "nd": 2386,
      "brain": 2387,
      "literacy": 2388,
      "kano": 2389,
      "kinga": 2390,
      "irwa": 2391,
      "Ha": 2392,
      "lat": 2393,
      "hether": 2394,
      "tri": 2395,
      "chuku": 2396,
      "nkɛntɛnso": 2397,
      "nhyi": 2398,
      "tical": 2399,
      "oden": 2400,
      "LGBT": 2401,
      "give": 2402,
      "belief": 2403,
      "LGBTQ": 2404,
      "19": 2405,
      "መድ": 2406,
      "ጊዜ": 2407,
      "istance": 2408,
      "okuziyiza": 2409,
      "Akwan": 2410,
      "preh": 2411,
      "tumia": 2412,
      "tances": 2413,
      "dɛm": 2414,
      "eeka": 2415,
      "taken": 2416,
      "area": 2417,
      "male": 2418,
      "descri": 2419,
      "Si": 2420,
      "plain": 2421,
      "Kabo": 2422,
      "obiara": 2423,
      "Neis": 2424,
      "amii": 2425,
      "yiraasi": 2426,
      "Ebi": 2427,
      "homasua": 2428,
      "mstances": 2429,
      "ahoɔ": 2430,
      "periods": 2431,
      "hoea": 2432,
      "okusaasa": 2433,
      "verse": 2434,
      "circumstances": 2435,
      "bedi": 2436,
      "ɛkɔ": 2437,
      "urr": 2438,
      "nkɔmmɔbɔ": 2439,
      "wogye": 2440,
      "Infections": 2441,
      "omoden": 2442,
      "vayiraasi": 2443,
      "ɔbea": 2444,
      "iseera": 2445,
      "train": 2446,
      "kebe": 2447,
      "shor": 2448,
      "asiane": 2449,
      "aches": 2450,
      "mmeae": 2451,
      "yambi": 2452,
      "apɔwmuden": 2453,
      "kwano": 2454,
      "nal": 2455,
      "semen": 2456,
      "eyes": 2457,
      "rit": 2458,
      "ancial": 2459,
      "typically": 2460,
      "topics": 2461,
      "While": 2462,
      "local": 2463,
      "likely": 2464,
      "abortion": 2465,
      "mmarima": 2466,
      "otongo": 2467,
      "prehensive": 2468,
      "asu": 2469,
      "sw": 2470,
      "istic": 2471,
      "tege": 2472,
      "atives": 2473,
      "tell": 2474,
      "Kabootongo": 2475,
      "yɛn": 2476,
      "omusawo": 2477,
      "adesua": 2478,
      "sub": 2479,
      "prefer": 2480,
      "kosa": 2481,
      "peci": 2482,
      "origin": 2483,
      "tena": 2484,
      "plat": 2485,
      "akwankyerɛ": 2486,
      "fertility": 2487,
      "wound": 2488,
      "especi": 2489,
      "itching": 2490,
      "kebere": 2491,
      "intercourse": 2492,
      "idizi": 2493,
      "especially": 2494,
      "Ghana": 2495,
      "amaanyi": 2496,
      "following": 2497,
      "doɔ": 2498,
      "bom": 2499,
      "tambu": 2500,
      "antiretroviral": 2501,
      "bs": 2502,
      "ahodoɔ": 2503,
      "proper": 2504,
      "alama": 2505,
      "results": 2506,
      "wɔbɛma": 2507,
      "Af": 2508,
      "oli": 2509,
      "ack": 2510,
      "ddagala": 2511,
      "unu": 2512,
      "parts": 2513,
      "emergen": 2514,
      "contribu": 2515,
      "cies": 2516,
      "damu": 2517,
      "nhyɛso": 2518,
      "could": 2519,
      "kee": 2520,
      "intanɛt": 2521,
      "pefee": 2522,
      "physical": 2523,
      "medi": 2524,
      "confidentiality": 2525,
      "Support": 2526,
      ".,": 2527,
      "Di": 2528,
      "On": 2529,
      "ogu": 2530,
      "kufanya": 2531,
      "promoting": 2532,
      "ight": 2533,
      "nu": 2534,
      "questions": 2535,
      "cam": 2536,
      "ony": 2537,
      "babies": 2538,
      "jus": 2539,
      "discomfort": 2540,
      "okukendeeza": 2541,
      "kol": 2542,
      "ɔbarima": 2543,
      "wɔre": 2544,
      "omusaayi": 2545,
      "gyinaesi": 2546,
      "kupata": 2547,
      "ንዶ": 2548,
      "apomoden": 2549,
      "titiriw": 2550,
      "consist": 2551,
      "setting": 2552,
      "nsakrae": 2553,
      "comple": 2554,
      "effects": 2555,
      "okutu": 2556,
      "As": 2557,
      "ron": 2558,
      "nsusuwii": 2559,
      "ahiade": 2560,
      "whether": 2561,
      "kuo": 2562,
      "kawa": 2563,
      "see": 2564,
      "wez": 2565,
      "lives": 2566,
      "basabasa": 2567,
      "discuss": 2568,
      "antibiotics": 2569,
      "kawaida": 2570,
      "lef": 2571,
      "ከላከ": 2572,
      "beliefs": 2573,
      "cri": 2574,
      "lymp": 2575,
      "bulungi": 2576,
      "anyizibwa": 2577,
      "ry": 2578,
      "taag": 2579,
      "breast": 2580,
      "Remember": 2581,
      "detect": 2582,
      "ensonga": 2583,
      "dhibiti": 2584,
      "Bw": 2585,
      "Nsɛm": 2586,
      "lea": 2587,
      "keberebwa": 2588,
      "kubwa": 2589,
      "wɔne": 2590,
      "supportive": 2591,
      "kondomu": 2592,
      "obola": 2593,
      "የተ": 2594,
      "face": 2595,
      "kupunguza": 2596,
      "drugs": 2597,
      "oka": 2598,
      "net": 2599,
      "damage": 2600,
      "screen": 2601,
      "mubiri": 2602,
      "To": 2603,
      "lear": 2604,
      "stand": 2605,
      "outbreaks": 2606,
      "ased": 2607,
      "ollen": 2608,
      "onya": 2609,
      "ulation": 2610,
      "comprehensive": 2611,
      "particip": 2612,
      "talk": 2613,
      "okwa": 2614,
      "ላይ": 2615,
      "initiatives": 2616,
      "ርመ": 2617,
      "onorrhoea": 2618,
      "depending": 2619,
      "note": 2620,
      "ennen": 2621,
      "jud": 2622,
      "dawa": 2623,
      "curable": 2624,
      "adwumayɛbea": 2625,
      "Commun": 2626,
      "AT": 2627,
      "dan": 2628,
      "gyi": 2629,
      "ድን": 2630,
      "read": 2631,
      "diverse": 2632,
      "gate": 2633,
      "ɔman": 2634,
      "direct": 2635,
      "afsi": 2636,
      "influence": 2637,
      "ɛda": 2638,
      "notice": 2639,
      "meas": 2640,
      "alii": 2641,
      "each": 2642,
      "ɛfo": 2643,
      "press": 2644,
      "dua": 2645,
      "oni": 2646,
      "medications": 2647,
      "evalu": 2648,
      "obubonero": 2649,
      "medication": 2650,
      "breath": 2651,
      "violence": 2652,
      "okumanya": 2653,
      "eran": 2654,
      "bɛtumi": 2655,
      "NAAT": 2656,
      "ned": 2657,
      "ensu": 2658,
      "acting": 2659,
      "stud": 2660,
      "wezek": 2661,
      "tɔ": 2662,
      "associ": 2663,
      "necess": 2664,
      "financial": 2665,
      "hivyo": 2666,
      "menstrual": 2667,
      "lebwa": 2668,
      "hauri": 2669,
      "limu": 2670,
      "obut": 2671,
      "sions": 2672,
      "ahoɔden": 2673,
      "wɔayɛ": 2674,
      "ntease": 2675,
      "ronic": 2676,
      "lic": 2677,
      "አን": 2678,
      "ind": 2679,
      "okusii": 2680,
      "mak": 2681,
      "num": 2682,
      "okuzaala": 2683,
      "until": 2684,
      "peers": 2685,
      "kab": 2686,
      "gener": 2687,
      "binafsi": 2688,
      "prioriti": 2689,
      "mediate": 2690,
      "his": 2691,
      "level": 2692,
      "gwo": 2693,
      "consult": 2694,
      "ureth": 2695,
      "nkurɔfo": 2696,
      "ይረ": 2697,
      "kak": 2698,
      "adhi": 2699,
      "live": 2700,
      "load": 2701,
      "inclusive": 2702,
      "colle": 2703,
      "bene": 2704,
      "kasobola": 2705,
      "medicines": 2706,
      "challenging": 2707,
      "water": 2708,
      "vis": 2709,
      "adults": 2710,
      "kutoka": 2711,
      "Use": 2712,
      "wili": 2713,
      "genitals": 2714,
      "contin": 2715,
      "ɛde": 2716,
      "matic": 2717,
      "okud": 2718,
      "comfortable": 2719,
      "Most": 2720,
      "eth": 2721,
      "mmeran": 2722,
      "involves": 2723,
      "ahye": 2724,
      "mpɔn": 2725,
      "seria": 2726,
      "quality": 2727,
      "Neisseria": 2728,
      "gani": 2729,
      "curr": 2730,
      "zebwa": 2731,
      "contribute": 2732,
      "መጠ": 2733,
      "kuuma": 2734,
      "case": 2735,
      "emi": 2736,
      "times": 2737,
      "reach": 2738,
      "asy": 2739,
      "were": 2740,
      "maji": 2741,
      "mmaba": 2742,
      "yiyim": 2743,
      "amoja": 2744,
      "ɛsɛ": 2745,
      "toso": 2746,
      "liver": 2747,
      "associated": 2748,
      "woozo": 2749,
      "lymph": 2750,
      "Par": 2751,
      "yisa": 2752,
      "rectum": 2753,
      "ele": 2754,
      "endo": 2755,
      "enge": 2756,
      "urination": 2757,
      "empower": 2758,
      "professionals": 2759,
      "Mɛyɛ": 2760,
      "alili": 2761,
      "ziku": 2762,
      "sed": 2763,
      "obuwuka": 2764,
      "pai": 2765,
      "kugu": 2766,
      "laws": 2767,
      "gibwa": 2768,
      "dren": 2769,
      "ውስ": 2770,
      "nodes": 2771,
      "navigate": 2772,
      "Vya": 2773,
      "ildren": 2774,
      "illin": 2775,
      "እንደ": 2776,
      "Su": 2777,
      "icillin": 2778,
      "paw": 2779,
      "opportunities": 2780,
      "judg": 2781,
      "Anti": 2782,
      "ental": 2783,
      "immediate": 2784,
      "adwenemyare": 2785,
      "chukua": 2786,
      "thing": 2787,
      "correctly": 2788,
      "Kinga": 2789,
      "osuahu": 2790,
      "ɛkyerɛ": 2791,
      "ahi": 2792,
      "moja": 2793,
      "diagnosis": 2794,
      "ARVs": 2795,
      "regarding": 2796,
      "platforms": 2797,
      "anga": 2798,
      "reas": 2799,
      "aduru": 2800,
      "due": 2801,
      "nnuru": 2802,
      "Or": 2803,
      "thin": 2804,
      "mater": 2805,
      "ongera": 2806,
      "find": 2807,
      "akuw": 2808,
      "Dwuma": 2809,
      "ru": 2810,
      "trichomoniasis": 2811,
      "recogni": 2812,
      "same": 2813,
      "breathing": 2814,
      "kisa": 2815,
      "tiveness": 2816,
      "woman": 2817,
      "stay": 2818,
      "ika": 2819,
      "foforo": 2820,
      "effor": 2821,
      "mtoto": 2822,
      "CD": 2823,
      "Singa": 2824,
      "enzi": 2825,
      "nyiyim": 2826,
      "ɔhwɛ": 2827,
      "providing": 2828,
      "organism": 2829,
      "pamoja": 2830,
      "ahihi": 2831,
      "ምና": 2832,
      "those": 2833,
      "noomu": 2834,
      "few": 2835,
      "abusua": 2836,
      "kinnoomu": 2837,
      "overall": 2838,
      "basabasayɛ": 2839,
      "receive": 2840,
      "cover": 2841,
      "policy": 2842,
      "children": 2843,
      "content": 2844,
      "choices": 2845,
      "gwa": 2846,
      "fever": 2847,
      "stages": 2848,
      "ages": 2849,
      "lubuto": 2850,
      "bila": 2851,
      "zito": 2852,
      "includes": 2853,
      "Using": 2854,
      "sse": 2855,
      "uti": 2856,
      "ange": 2857,
      "alaze": 2858,
      "tiaabu": 2859,
      "behavior": 2860,
      "tima": 2861,
      "akat": 2862,
      "responsi": 2863,
      "primarily": 2864,
      "kutumia": 2865,
      "emergency": 2866,
      "De": 2867,
      "cl": 2868,
      "Trans": 2869,
      "Nk": 2870,
      "bɔne": 2871,
      "experien": 2872,
      "ጤና": 2873,
      "injec": 2874,
      "key": 2875,
      "ahotoso": 2876,
      "involve": 2877,
      "ለው": 2878,
      "barriers": 2879,
      "paigns": 2880,
      "kebeza": 2881,
      "obuyambi": 2882,
      "kissing": 2883,
      "gee": 2884,
      "mfa": 2885,
      "wanga": 2886,
      "good": 2887,
      "abstain": 2888,
      "prioritize": 2889,
      "Cultu": 2890,
      "Up": 2891,
      "ርመራ": 2892,
      "cases": 2893,
      "measures": 2894,
      "ima": 2895,
      "nyɛ": 2896,
      "ምርመራ": 2897,
      "naku": 2898,
      "secon": 2899,
      "hip": 2900,
      "planning": 2901,
      "sme": 2902,
      "mptomatic": 2903,
      "ebitundu": 2904,
      "stress": 2905,
      "eg": 2906,
      "esty": 2907,
      "lesi": 2908,
      "eno": 2909,
      "nsɛmti": 2910,
      "STD": 2911,
      "efforts": 2912,
      "though": 2913,
      "always": 2914,
      "second": 2915,
      "mimba": 2916,
      "abab": 2917,
      "quired": 2918,
      "effectively": 2919,
      "ceptions": 2920,
      "kiriza": 2921,
      "improve": 2922,
      "nta": 2923,
      "usuw": 2924,
      "mw": 2925,
      "mwe": 2926,
      "ልክ": 2927,
      "ators": 2928,
      "start": 2929,
      "idia": 2930,
      "okusinziira": 2931,
      "enda": 2932,
      "professional": 2933,
      "kupima": 2934,
      "Ikiwa": 2935,
      "okuso": 2936,
      "lying": 2937,
      "ሰው": 2938,
      "ክምና": 2939,
      "isten": 2940,
      "ires": 2941,
      "shiri": 2942,
      "jjanjabibwa": 2943,
      "walio": 2944,
      "bali": 2945,
      "ላል": 2946,
      "athy": 2947,
      "Healthcare": 2948,
      "HBV": 2949,
      "bers": 2950,
      "sc": 2951,
      "advice": 2952,
      "increase": 2953,
      "urethra": 2954,
      "Hwehwɛ": 2955,
      "hus": 2956,
      "weight": 2957,
      "zaidi": 2958,
      "obuta": 2959,
      "ssekinnoomu": 2960,
      "pp": 2961,
      "pop": 2962,
      "perspec": 2963,
      "ambayo": 2964,
      "Emp": 2965,
      "wata": 2966,
      "bubonero": 2967,
      "goals": 2968,
      "Prop": 2969,
      "safety": 2970,
      "courage": 2971,
      "Education": 2972,
      "fits": 2973,
      "okuyita": 2974,
      "necessary": 2975,
      "inating": 2976,
      "perm": 2977,
      "sens": 2978,
      "check": 2979,
      "rare": 2980,
      "wosiw": 2981,
      "ulo": 2982,
      "faith": 2983,
      "engeri": 2984,
      "desi": 2985,
      "el": 2986,
      "yiyedi": 2987,
      "fill": 2988,
      "kuba": 2989,
      "kula": 2990,
      "akasa": 2991,
      "means": 2992,
      "husi": 2993,
      "thral": 2994,
      "lesions": 2995,
      "intu": 2996,
      "tradi": 2997,
      "disability": 2998,
      "causing": 2999,
      "unaweza": 3000,
      "wobe": 3001,
      "true": 3002,
      "norms": 3003,
      "swollen": 3004,
      "ntetee": 3005,
      "18": 3006,
      "condition": 3007,
      "weeza": 3008,
      "pɔtee": 3009,
      "ምልክ": 3010,
      "onatal": 3011,
      "abal": 3012,
      "months": 3013,
      "Enziku": 3014,
      "danger": 3015,
      "gwe": 3016,
      "ganya": 3017,
      "salama": 3018,
      "kusobola": 3019,
      "chronic": 3020,
      "look": 3021,
      "situation": 3022,
      "reducing": 3023,
      "organs": 3024,
      "yenye": 3025,
      "amangu": 3026,
      "enne": 3027,
      "omy": 3028,
      "ditions": 3029,
      "ake": 3030,
      "asetena": 3031,
      "erc": 3032,
      "actions": 3033,
      "tuufu": 3034,
      "short": 3035,
      "ize": 3036,
      "nhomasua": 3037,
      "በት": 3038,
      "kudhibiti": 3039,
      "diffic": 3040,
      "mmɔden": 3041,
      "campaigns": 3042,
      "Kwa": 3043,
      "anaweza": 3044,
      "obupiira": 3045,
      "abula": 3046,
      "Eng": 3047,
      "ebia": 3048,
      "ገር": 3049,
      "maama": 3050,
      "convers": 3051,
      "partic": 3052,
      "tech": 3053,
      "knowled": 3054,
      "ኢን": 3055,
      "bula": 3056,
      "beezi": 3057,
      "recurr": 3058,
      "assistance": 3059,
      "Reg": 3060,
      "Exposure": 3061,
      "onini": 3062,
      "titu": 3063,
      "econom": 3064,
      "fauti": 3065,
      "vaginalis": 3066,
      "berɛ": 3067,
      "dalili": 3068,
      "eo": 3069,
      "gera": 3070,
      "ennyo": 3071,
      "hips": 3072,
      "reating": 3073,
      "childbirth": 3074,
      "geeza": 3075,
      "llow": 3076,
      "drome": 3077,
      "publ": 3078,
      "surance": 3079,
      "CD4": 3080,
      "akini": 3081,
      "wotumi": 3082,
      "patients": 3083,
      "taagisa": 3084,
      "busobola": 3085,
      "challenge": 3086,
      "discussions": 3087,
      "Hi": 3088,
      "ever": 3089,
      "pɛyɛ": 3090,
      "tou": 3091,
      "uta": 3092,
      "mpany": 3093,
      "sana": 3094,
      "tt": 3095,
      "weweeza": 3096,
      "lumi": 3097,
      "banga": 3098,
      "respectful": 3099,
      "onorrhoeae": 3100,
      "Men": 3101,
      "TB": 3102,
      "Wabula": 3103,
      "bye": 3104,
      "nsɛ": 3105,
      "voc": 3106,
      "ይችላሉ": 3107,
      "situations": 3108,
      "gyidi": 3109,
      "accep": 3110,
      "trau": 3111,
      "lif": 3112,
      "sanny": 3113,
      "jjanjaba": 3114,
      "affected": 3115,
      "nsuanso": 3116,
      "basobola": 3117,
      "ቫይረ": 3118,
      "okuyamba": 3119,
      "tew": 3120,
      "boys": 3121,
      "Intanɛt": 3122,
      "working": 3123,
      "choose": 3124,
      "economic": 3125,
      "kitundu": 3126,
      "ɔs": 3127,
      "enkyukakyuka": 3128,
      "mutu": 3129,
      "ahwehwɛ": 3130,
      "world": 3131,
      "managing": 3132,
      "atory": 3133,
      "conne": 3134,
      "conditions": 3135,
      "schools": 3136,
      "Many": 3137,
      "mbe": 3138,
      "mwen": 3139,
      "ɛne": 3140,
      "ɛboa": 3141,
      "adu": 3142,
      "wide": 3143,
      "loss": 3144,
      "engaging": 3145,
      "bya": 3146,
      "clu": 3147,
      "uj": 3148,
      "rele": 3149,
      "hold": 3150,
      "wɔpene": 3151,
      "sujja": 3152,
      "ክሽ": 3153,
      "needed": 3154,
      "welling": 3155,
      "Seek": 3156,
      "bb": 3157,
      "hyehyɛ": 3158,
      "mall": 3159,
      "did": 3160,
      "noonya": 3161,
      "vile": 3162,
      "ventions": 3163,
      "ፌክሽ": 3164,
      "aces": 3165,
      "acqu": 3166,
      "engine": 3167,
      "susuw": 3168,
      "involved": 3169,
      "ኢንፌክሽ": 3170,
      "ei": 3171,
      "irako": 3172,
      "buno": 3173,
      "chances": 3174,
      "eddwa": 3175,
      "P2": 3176,
      "yares": 3177,
      "baadhi": 3178,
      "bɛyɛ": 3179,
      "allow": 3180,
      "contracting": 3181,
      "empathy": 3182,
      "create": 3183,
      "completely": 3184,
      "number": 3185,
      "sensation": 3186,
      "የመ": 3187,
      "tivity": 3188,
      "kuz": 3189,
      "urinating": 3190,
      "faali": 3191,
      "harmful": 3192,
      "eotypes": 3193,
      "esha": 3194,
      "kafo": 3195,
      "faa": 3196,
      "wanaweza": 3197,
      "feeling": 3198,
      "primary": 3199,
      "ready": 3200,
      "Regular": 3201,
      "15": 3202,
      "swelling": 3203,
      "kuchukua": 3204,
      "ofra": 3205,
      "ansa": 3206,
      "nnennen": 3207,
      "atia": 3208,
      "animtiaabu": 3209,
      "mfonini": 3210,
      "trust": 3211,
      "preferences": 3212,
      "Prophy": 3213,
      "eve": 3214,
      "attitu": 3215,
      "ame": 3216,
      "wote": 3217,
      "why": 3218,
      "ventive": 3219,
      "zuula": 3220,
      "ayaresabea": 3221,
      "stop": 3222,
      "sannyalaze": 3223,
      "Prophylaxis": 3224,
      "wanao": 3225,
      "kokoamsɛm": 3226,
      "akyerɛkyerɛ": 3227,
      "mmerante": 3228,
      "ute": 3229,
      "bumba": 3230,
      "ilding": 3231,
      "frɛ": 3232,
      "ichomonas": 3233,
      "apɔmuden": 3234,
      "tendera": 3235,
      "xi": 3236,
      "abilities": 3237,
      "yie": 3238,
      "ɛnteɛ": 3239,
      "gala": 3240,
      "kit": 3241,
      "oring": 3242,
      "Le": 3243,
      "small": 3244,
      "ants": 3245,
      "detectable": 3246,
      "ites": 3247,
      "akyala": 3248,
      "inated": 3249,
      "atɛn": 3250,
      "nkr": 3251,
      "struc": 3252,
      "meaning": 3253,
      "infertility": 3254,
      "ateeka": 3255,
      "prac": 3256,
      "group": 3257,
      "usaidizi": 3258,
      "Of": 3259,
      "hand": 3260,
      "tation": 3261,
      "agye": 3262,
      "daa": 3263,
      "contraceptive": 3264,
      "Mmoa": 3265,
      "date": 3266,
      "sequ": 3267,
      "feeding": 3268,
      "takes": 3269,
      "tonom": 3270,
      "formed": 3271,
      "omubeezi": 3272,
      "gyinae": 3273,
      "interventions": 3274,
      "akuo": 3275,
      "Ama": 3276,
      "visi": 3277,
      "፡፡": 3278,
      "tom": 3279,
      "wukana": 3280,
      "nhwɛ": 3281,
      "herence": 3282,
      "Common": 3283,
      "dangerous": 3284,
      "particular": 3285,
      "ffaali": 3286,
      "pim": 3287,
      "ticing": 3288,
      "responsible": 3289,
      "diagnosed": 3290,
      "attitudes": 3291,
      "os": 3292,
      "okuwa": 3293,
      "tun": 3294,
      "respec": 3295,
      "ended": 3296,
      "bota": 3297,
      "simplex": 3298,
      "asymptomatic": 3299,
      "irrit": 3300,
      "posed": 3301,
      "okubu": 3302,
      "kwat": 3303,
      "considered": 3304,
      "training": 3305,
      "nutri": 3306,
      "ውስጥ": 3307,
      "zation": 3308,
      "treatments": 3309,
      "ungufu": 3310,
      "ntɛm": 3311,
      "tonomy": 3312,
      "lini": 3313,
      "nsi": 3314,
      "ላለ": 3315,
      "nyingi": 3316,
      "carri": 3317,
      "ored": 3318,
      "iring": 3319,
      "olw": 3320,
      ".•": 3321,
      "je": 3322,
      "buu": 3323,
      "Prevention": 3324,
      "perspectives": 3325,
      "ansi": 3326,
      "head": 3327,
      "contain": 3328,
      "shu": 3329,
      "commonly": 3330,
      "approach": 3331,
      "ennungi": 3332,
      "ntaw": 3333,
      "Plan": 3334,
      "lakini": 3335,
      "baana": 3336,
      "ghuli": 3337,
      "say": 3338,
      "bodies": 3339,
      "religious": 3340,
      "Akwa": 3341,
      "geza": 3342,
      "resist": 3343,
      "waliwo": 3344,
      "asser": 3345,
      "baada": 3346,
      "fric": 3347,
      "avoiding": 3348,
      "nsunsuanso": 3349,
      "ከላከል": 3350,
      "public": 3351,
      "azi": 3352,
      "cin": 3353,
      "gya": 3354,
      "insi": 3355,
      "prescri": 3356,
      "stitu": 3357,
      "affects": 3358,
      "stereotypes": 3359,
      "mbo": 3360,
      "tter": 3361,
      "liwa": 3362,
      "aliye": 3363,
      "thromy": 3364,
      "throughout": 3365,
      "Why": 3366,
      "girl": 3367,
      "Testing": 3368,
      "amiiana": 3369,
      "thromycin": 3370,
      "bad": 3371,
      "mild": 3372,
      "cancer": 3373,
      "coming": 3374,
      "rap": 3375,
      "que": 3376,
      "considerations": 3377,
      "she": 3378,
      "bujjanjabi": 3379,
      "tex": 3380,
      "obubi": 3381,
      "assess": 3382,
      "knowledge": 3383,
      "great": 3384,
      "okukeberebwa": 3385,
      "explain": 3386,
      "homatis": 3387,
      "Ti": 3388,
      "balina": 3389,
      "አዎ": 3390,
      "lap": 3391,
      "ount": 3392,
      "ababu": 3393,
      "Addition": 3394,
      "leading": 3395,
      "aware": 3396,
      "Additionally": 3397,
      "ndu": 3398,
      "ume": 3399,
      "vents": 3400,
      "try": 3401,
      "uro": 3402,
      "quire": 3403,
      "paswa": 3404,
      "estyle": 3405,
      "teach": 3406,
      "preventive": 3407,
      "spreads": 3408,
      "educational": 3409,
      "በመ": 3410,
      "kiyinza": 3411,
      "point": 3412,
      "clinics": 3413,
      "nhwɛso": 3414,
      "Sh": 3415,
      "hunu": 3416,
      "towar": 3417,
      "outcomes": 3418,
      "ezit": 3419,
      "significantly": 3420,
      "screening": 3421,
      "sequences": 3422,
      "Tal": 3423,
      "free": 3424,
      "kul": 3425,
      "kuw": 3426,
      "endala": 3427,
      "autonomy": 3428,
      "okwan": 3429,
      "inflam": 3430,
      "Upungufu": 3431,
      "Yee": 3432,
      "helps": 3433,
      "patient": 3434,
      "nhyiam": 3435,
      "benefits": 3436,
      "With": 3437,
      "glo": 3438,
      "waki": 3439,
      "achi": 3440,
      "ndrome": 3441,
      "sperm": 3442,
      "ተላለ": 3443,
      "represent": 3444,
      "illness": 3445,
      "Symptoms": 3446,
      "identify": 3447,
      "limit": 3448,
      "ነገር": 3449,
      "semin": 3450,
      "acute": 3451,
      "okug": 3452,
      "okusobola": 3453,
      "ulations": 3454,
      "needles": 3455,
      "progress": 3456,
      "Wɔde": 3457,
      "critical": 3458,
      "haki": 3459,
      "ɛhyɛ": 3460,
      "orɔ": 3461,
      "home": 3462,
      "exposed": 3463,
      "ground": 3464,
      "swabs": 3465,
      "zinazo": 3466,
      "environment": 3467,
      "akatyabaga": 3468,
      "Safe": 3469,
      "abɛ": 3470,
      "wɔbɛka": 3471,
      "nnɔ": 3472,
      "specim": 3473,
      "males": 3474,
      "awamu": 3475,
      "myaka": 3476,
      "obwe": 3477,
      "anced": 3478,
      "fully": 3479,
      "passed": 3480,
      "described": 3481,
      "Abantu": 3482,
      "ibwa": 3483,
      "muda": 3484,
      "selves": 3485,
      "ingatia": 3486,
      "ወደ": 3487,
      "musaayi": 3488,
      "wɔhyɛ": 3489,
      "action": 3490,
      "exerc": 3491,
      "fumo": 3492,
      "adwumayɛfoɔ": 3493,
      "አይቪ": 3494,
      "everyone": 3495,
      "yanaweza": 3496,
      "Akwahosan": 3497,
      "saf": 3498,
      "vvayiraasi": 3499,
      "mama": 3500,
      "ask": 3501,
      "ache": 3502,
      "later": 3503,
      "must": 3504,
      "byo": 3505,
      "gue": 3506,
      "Wobetumi": 3507,
      "Saa": 3508,
      "lish": 3509,
      "ɔm": 3510,
      "የአ": 3511,
      "too": 3512,
      "wɔboa": 3513,
      "move": 3514,
      "ኤችአይቪ": 3515,
      "networks": 3516,
      "sources": 3517,
      "twa": 3518,
      "ችን": 3519,
      "ዘር": 3520,
      "ዲያ": 3521,
      "att": 3522,
      "sitivity": 3523,
      "adwen": 3524,
      "importance": 3525,
      "nsɛnnennen": 3526,
      "sahihi": 3527,
      "hadi": 3528,
      "huku": 3529,
      "weralii": 3530,
      "ayaya": 3531,
      "Afric": 3532,
      "Rec": 3533,
      "hara": 3534,
      "adult": 3535,
      "loc": 3536,
      "sɛnkyerɛ": 3537,
      "mfaso": 3538,
      "ethical": 3539,
      "abɛɛfo": 3540,
      "off": 3541,
      "tations": 3542,
      "gema": 3543,
      "growth": 3544,
      "uzazi": 3545,
      "future": 3546,
      "labe": 3547,
      "By": 3548,
      "ውን": 3549,
      "accessing": 3550,
      "leep": 3551,
      "honest": 3552,
      "bro": 3553,
      "mess": 3554,
      "abwe": 3555,
      "foster": 3556,
      "ekibumba": 3557,
      "traditional": 3558,
      "national": 3559,
      "consequences": 3560,
      "mmaa": 3561,
      "vidence": 3562,
      "consistently": 3563,
      "continu": 3564,
      "Africa": 3565,
      "gamba": 3566,
      "ድረ": 3567,
      "kufu": 3568,
      "hops": 3569,
      "strain": 3570,
      "chang": 3571,
      "wonni": 3572,
      "ሆን": 3573,
      "gover": 3574,
      "embuto": 3575,
      "pression": 3576,
      "highly": 3577,
      "mwili": 3578,
      "tlines": 3579,
      "yonna": 3580,
      "okuka": 3581,
      "mmere": 3582,
      "ግንኙ": 3583,
      "Enkola": 3584,
      "bisobola": 3585,
      "place": 3586,
      "kirira": 3587,
      "Ebia": 3588,
      "zinaweza": 3589,
      "ango": 3590,
      "kutambu": 3591,
      "sibility": 3592,
      "prom": 3593,
      "Condom": 3594,
      "ulibwa": 3595,
      "depends": 3596,
      "maaso": 3597,
      "wash": 3598,
      "ofa": 3599,
      "kyo": 3600,
      "yote": 3601,
      "survi": 3602,
      "Pregn": 3603,
      "kupitia": 3604,
      "langu": 3605,
      "shughuli": 3606,
      "ben": 3607,
      "cris": 3608,
      "amp": 3609,
      "complex": 3610,
      "star": 3611,
      "car": 3612,
      "ming": 3613,
      "fication": 3614,
      "akwanside": 3615,
      "Advoc": 3616,
      "Nn": 3617,
      "fan": 3618,
      "ቀም": 3619,
      "entu": 3620,
      "zaji": 3621,
      "wɔkamfo": 3622,
      "wounds": 3623,
      "keep": 3624,
      "wɔhwɛ": 3625,
      "abr": 3626,
      "ours": 3627,
      "ahofa": 3628,
      "እንዴ": 3629,
      "kutoa": 3630,
      "100": 3631,
      "kka": 3632,
      "nsa": 3633,
      "ታከ": 3634,
      "ኒት": 3635,
      "tool": 3636,
      "enter": 3637,
      "become": 3638,
      "boka": 3639,
      "gober": 3640,
      "wɔbɛhwehwɛ": 3641,
      "effectiveness": 3642,
      "Sexually": 3643,
      "okumala": 3644,
      "ondo": 3645,
      "waza": 3646,
      "kamwa": 3647,
      "okukosa": 3648,
      "express": 3649,
      "advis": 3650,
      "okuvaamu": 3651,
      "students": 3652,
      "Pri": 3653,
      "eas": 3654,
      "mbu": 3655,
      "sababu": 3656,
      "ሪያ": 3657,
      "obuvubuka": 3658,
      "efi": 3659,
      "itaji": 3660,
      "Being": 3661,
      "kujamiiana": 3662,
      "okudda": 3663,
      "Nkitaho": 3664,
      "ግንኙነት": 3665,
      "found": 3666,
      "send": 3667,
      "wowɔ": 3668,
      "gezi": 3669,
      "alamu": 3670,
      "kea": 3671,
      "okwo": 3672,
      "Mmara": 3673,
      "dɔ": 3674,
      "remember": 3675,
      "saidia": 3676,
      "ebintu": 3677,
      "trachomatis": 3678,
      "እንዴት": 3679,
      "Mpɔ": 3680,
      "bes": 3681,
      "entan": 3682,
      "ests": 3683,
      "aliva": 3684,
      "tention": 3685,
      "My": 3686,
      "ities": 3687,
      "መን": 3688,
      "ተኛ": 3689,
      "enatal": 3690,
      "abas": 3691,
      "viruses": 3692,
      "strong": 3693,
      "sɛnkyerɛnne": 3694,
      "MT": 3695,
      "som": 3696,
      "acter": 3697,
      "imple": 3698,
      "usha": 3699,
      "ago": 3700,
      "expec": 3701,
      "vie": 3702,
      "din": 3703,
      "ozi": 3704,
      "wene": 3705,
      "woyi": 3706,
      "zaal": 3707,
      "yellow": 3708,
      "agen": 3709,
      "indic": 3710,
      "identity": 3711,
      "kale": 3712,
      "things": 3713,
      "better": 3714,
      "bɛka": 3715,
      "confir": 3716,
      "practice": 3717,
      "increased": 3718,
      "close": 3719,
      "NAATs": 3720,
      "mfe": 3721,
      "okugenda": 3722,
      "particularly": 3723,
      "Yɛ": 3724,
      "adan": 3725,
      "themselves": 3726,
      "lifestyle": 3727,
      "govern": 3728,
      "fotu": 3729,
      "mood": 3730,
      "gumba": 3731,
      "Trichomonas": 3732,
      "okubaawo": 3733,
      "experiencing": 3734,
      "angu": 3735,
      "erwa": 3736,
      "hum": 3737,
      "zuulibwa": 3738,
      "mind": 3739,
      "counselor": 3740,
      "happens": 3741,
      "standar": 3742,
      "kutambua": 3743,
      "ችል": 3744,
      "ensi": 3745,
      "irira": 3746,
      "uring": 3747,
      "initial": 3748,
      "counter": 3749,
      "akɔnnɔ": 3750,
      "mpanyim": 3751,
      "Mpɔtam": 3752,
      "done": 3753,
      "zimba": 3754,
      "ances": 3755,
      "isinga": 3756,
      "heal": 3757,
      "leaders": 3758,
      "doctors": 3759,
      "speci": 3760,
      "onsono": 3761,
      "diet": 3762,
      "endelea": 3763,
      "wato": 3764,
      "irowoozo": 3765,
      "function": 3766,
      "sin": 3767,
      "ከት": 3768,
      "insurance": 3769,
      "esobola": 3770,
      "naddala": 3771,
      "okufu": 3772,
      "disabilities": 3773,
      "OV": 3774,
      "rash": 3775,
      "ማድረ": 3776,
      "ush": 3777,
      "vaccines": 3778,
      "Ebitundu": 3779,
      "ግብ": 3780,
      "refu": 3781,
      "bulabe": 3782,
      "lowooza": 3783,
      "worker": 3784,
      "regularly": 3785,
      "botae": 3786,
      "azithromycin": 3787,
      "rapid": 3788,
      "okukuuma": 3789,
      "guide": 3790,
      "wɔbɛyɛ": 3791,
      "members": 3792,
      "ood": 3793,
      "saliva": 3794,
      "wake": 3795,
      "wɔbɔ": 3796,
      "esie": 3797,
      "nkitahodie": 3798,
      "akyiri": 3799,
      "intended": 3800,
      "versity": 3801,
      "ɔmanfo": 3802,
      "Hata": 3803,
      "kor": 3804,
      "ɛbɛma": 3805,
      "three": 3806,
      "ingine": 3807,
      "adherence": 3808,
      "ilit": 3809,
      "Practi": 3810,
      "penicillin": 3811,
      "acquiring": 3812,
      "xiety": 3813,
      "Amammerɛ": 3814,
      "Avoid": 3815,
      "Ky": 3816,
      "ged": 3817,
      "abdom": 3818,
      "heart": 3819,
      "okutangira": 3820,
      "hai": 3821,
      "odor": 3822,
      "kolebwa": 3823,
      "ntentan": 3824,
      "immediately": 3825,
      "24": 3826,
      "ses": 3827,
      "tin": 3828,
      "mambo": 3829,
      "cold": 3830,
      "Omusujja": 3831,
      "ayayade": 3832,
      "osobola": 3833,
      "mato": 3834,
      "ebirowoozo": 3835,
      "hormonal": 3836,
      "Talk": 3837,
      "tent": 3838,
      "ይህ": 3839,
      "abere": 3840,
      "wɔbɛhyɛ": 3841,
      "emotions": 3842,
      "requires": 3843,
      "left": 3844,
      "resistant": 3845,
      "seminated": 3846,
      "easily": 3847,
      "Coun": 3848,
      "Lo": 3849,
      "egg": 3850,
      "oles": 3851,
      "yigira": 3852,
      "nkyɛn": 3853,
      "ticles": 3854,
      "settings": 3855,
      "hist": 3856,
      "ndi": 3857,
      "rally": 3858,
      "yina": 3859,
      "zesa": 3860,
      "ቂጥ": 3861,
      "soon": 3862,
      "keo": 3863,
      "kino": 3864,
      "akamfo": 3865,
      "walira": 3866,
      "mitted": 3867,
      "hisia": 3868,
      "widely": 3869,
      "ቂጥኝ": 3870,
      "Nna": 3871,
      "obwa": 3872,
      "ብጥ": 3873,
      "kuishi": 3874,
      "wanyisa": 3875,
      "ebit": 3876,
      "patikana": 3877,
      "disclo": 3878,
      "conflic": 3879,
      "kwatagana": 3880,
      "Get": 3881,
      "evidence": 3882,
      "kuta": 3883,
      "near": 3884,
      "suban": 3885,
      "hair": 3886,
      "ulira": 3887,
      "peak": 3888,
      "diseases": 3889,
      "ambaye": 3890,
      "workshops": 3891,
      "OVID": 3892,
      "Col": 3893,
      "away": 3894,
      "egy": 3895,
      "አለ": 3896,
      "ደረ": 3897,
      "yɛde": 3898,
      "expl": 3899,
      "maintaining": 3900,
      "ahofadi": 3901,
      "aten": 3902,
      "icate": 3903,
      "fulfill": 3904,
      "afoɔ": 3905,
      "obwongo": 3906,
      "wezekana": 3907,
      "Nkitahodi": 3908,
      "zino": 3909,
      "ጨብጥ": 3910,
      "iting": 3911,
      "leka": 3912,
      "sick": 3913,
      "chlamydial": 3914,
      "ung": 3915,
      "kia": 3916,
      "okusalawo": 3917,
      "centers": 3918,
      "Providing": 3919,
      "aina": 3920,
      "ኮንዶ": 3921,
      "ising": 3922,
      "tur": 3923,
      "yitibwa": 3924,
      "ambao": 3925,
      "faces": 3926,
      "background": 3927,
      "ትን": 3928,
      "tially": 3929,
      "ick": 3930,
      "given": 3931,
      "abasawo": 3932,
      "fanisi": 3933,
      "humans": 3934,
      "pare": 3935,
      "vul": 3936,
      "determ": 3937,
      "log": 3938,
      "okwewala": 3939,
      "wengi": 3940,
      "addressing": 3941,
      "reliable": 3942,
      "breastfeeding": 3943,
      "okusiiga": 3944,
      "wangaala": 3945,
      "okuny": 3946,
      "okuleeta": 3947,
      "comb": 3948,
      "voic": 3949,
      "Providers": 3950,
      "inflammation": 3951,
      "implement": 3952,
      "Nh": 3953,
      "oyinza": 3954,
      "sci": 3955,
      "mucus": 3956,
      "neonatal": 3957,
      "tegr": 3958,
      "guar": 3959,
      "rectal": 3960,
      "potentially": 3961,
      "safer": 3962,
      "Condoms": 3963,
      "loy": 3964,
      "ause": 3965,
      "performed": 3966,
      "friendly": 3967,
      "ɔsatu": 3968,
      "pimo": 3969,
      "Nea": 3970,
      "erera": 3971,
      "gether": 3972,
      "ያስከት": 3973,
      "መድሃ": 3974,
      "30": 3975,
      "CT": 3976,
      "bisa": 3977,
      "ሆነ": 3978,
      "ስለ": 3979,
      "kuusa": 3980,
      "emyaka": 3981,
      "Wɔn": 3982,
      "ggya": 3983,
      "clean": 3984,
      "surfaces": 3985,
      "smell": 3986,
      "language": 3987,
      "Ty": 3988,
      "Wali": 3989,
      "dod": 3990,
      "simil": 3991,
      "ekikyala": 3992,
      "ishwa": 3993,
      "cost": 3994,
      "waliro": 3995,
      "example": 3996,
      "just": 3997,
      "ensuring": 3998,
      "recurrences": 3999,
      "similar": 4000,
      "zza": 4001,
      "ባላ": 4002,
      "wuli": 4003,
      "baka": 4004,
      "teem": 4005,
      "ust": 4006,
      "resili": 4007,
      "viirako": 4008,
      "zole": 4009,
      "culturally": 4010,
      "discussing": 4011,
      "kunaweza": 4012,
      "mesom": 4013,
      "Bi": 4014,
      "Jju": 4015,
      "pee": 4016,
      "wɔhwehwɛ": 4017,
      "ross": 4018,
      "Jjukira": 4019,
      "Post": 4020,
      "ብዙ": 4021,
      "encourage": 4022,
      "esteem": 4023,
      "okumu": 4024,
      "wodi": 4025,
      "bika": 4026,
      "fail": 4027,
      "abika": 4028,
      "ucle": 4029,
      "appearance": 4030,
      "nhyiamu": 4031,
      "tegeera": 4032,
      "practicing": 4033,
      "An": 4034,
      "frequ": 4035,
      "ያለ": 4036,
      "once": 4037,
      "report": 4038,
      "mate": 4039,
      "obuzibu": 4040,
      "esiga": 4041,
      "ogw": 4042,
      "yareɛ": 4043,
      "miscon": 4044,
      "injection": 4045,
      "ናቸው": 4046,
      "hokafo": 4047,
      "baabi": 4048,
      "undetectable": 4049,
      "ekiseera": 4050,
      "female": 4051,
      "okwekebeza": 4052,
      "Syndrome": 4053,
      "nyamesom": 4054,
      "emphas": 4055,
      "spreading": 4056,
      "itegeeza": 4057,
      "society": 4058,
      "examination": 4059,
      "akiti": 4060,
      "generally": 4061,
      "Transmitted": 4062,
      "husiano": 4063,
      ":•": 4064,
      "nur": 4065,
      "range": 4066,
      "matumi": 4067,
      "itself": 4068,
      "ablish": 4069,
      "haa": 4070,
      "dose": 4071,
      "passing": 4072,
      "difficult": 4073,
      "Engaging": 4074,
      "nistic": 4075,
      "ufanisi": 4076,
      "oforɔ": 4077,
      "irimu": 4078,
      "kwaw": 4079,
      "Trich": 4080,
      "እንዲ": 4081,
      "barrier": 4082,
      "ባላዘር": 4083,
      "flow": 4084,
      "pill": 4085,
      "uter": 4086,
      "አስ": 4087,
      "buuza": 4088,
      "building": 4089,
      "kari": 4090,
      "sulo": 4091,
      "weak": 4092,
      "viiri": 4093,
      "okwetangira": 4094,
      "myself": 4095,
      "educators": 4096,
      "fied": 4097,
      "weegatta": 4098,
      "collabor": 4099,
      "Afya": 4100,
      "akitiiri": 4101,
      "Ab": 4102,
      "ርፒ": 4103,
      "hol": 4104,
      "sycho": 4105,
      "omoo": 4106,
      "End": 4107,
      "ርፒስ": 4108,
      "Vvayiraasi": 4109,
      "lya": 4110,
      "umu": 4111,
      "assa": 4112,
      "kazi": 4113,
      "precau": 4114,
      "okka": 4115,
      "recor": 4116,
      "nsonsono": 4117,
      "knowing": 4118,
      "margin": 4119,
      "either": 4120,
      "mfumo": 4121,
      "bukyala": 4122,
      "wundu": 4123,
      "kiba": 4124,
      "option": 4125,
      "app": 4126,
      "streng": 4127,
      "mainly": 4128,
      "broni": 4129,
      "wale": 4130,
      "joint": 4131,
      "firi": 4132,
      "kila": 4133,
      "tify": 4134,
      "attention": 4135,
      "okuy": 4136,
      "contex": 4137,
      "wanaoishi": 4138,
      "prescribed": 4139,
      "mer": 4140,
      "nini": 4141,
      "sha": 4142,
      "ɔba": 4143,
      "anxiety": 4144,
      "real": 4145,
      "atua": 4146,
      "kyetaagisa": 4147,
      "okutuuka": 4148,
      "reasons": 4149,
      "crisis": 4150,
      "evol": 4151,
      "ials": 4152,
      "last": 4153,
      "ndo": 4154,
      "thers": 4155,
      "webs": 4156,
      "tagious": 4157,
      "contagious": 4158,
      "anigye": 4159,
      "olususu": 4160,
      "juli": 4161,
      "okusaasaanya": 4162,
      "During": 4163,
      "We": 4164,
      "mwana": 4165,
      "ɔyare": 4166,
      "bayinza": 4167,
      "tema": 4168,
      "want": 4169,
      "wange": 4170,
      "paa": 4171,
      "mode": 4172,
      "giene": 4173,
      "fuba": 4174,
      "Gener": 4175,
      "precautions": 4176,
      "Str": 4177,
      "daily": 4178,
      "fear": 4179,
      "intervention": 4180,
      "bora": 4181,
      "facilities": 4182,
      "mmabaa": 4183,
      "ማድረግ": 4184,
      "Counsel": 4185,
      "aim": 4186,
      "together": 4187,
      "ech": 4188,
      "sus": 4189,
      "white": 4190,
      "bwonna": 4191,
      "super": 4192,
      "immunodeficiency": 4193,
      "referred": 4194,
      "lefon": 4195,
      "Cultural": 4196,
      "abalala": 4197,
      "global": 4198,
      "messages": 4199,
      "ucleic": 4200,
      "Fever": 4201,
      "ium": 4202,
      "ለም": 4203,
      "ክላ": 4204,
      "remain": 4205,
      "acces": 4206,
      "wobu": 4207,
      "endwadde": 4208,
      "treatable": 4209,
      "nnamfo": 4210,
      "gozo": 4211,
      "wongozo": 4212,
      "mitendera": 4213,
      "bbakitiiri": 4214,
      "gene": 4215,
      "gidde": 4216,
      "kanya": 4217,
      "ɔyares": 4218,
      "ɛba": 4219,
      "ካል": 4220,
      "pray": 4221,
      "okuzuula": 4222,
      "obun": 4223,
      "omusulo": 4224,
      "state": 4225,
      "ምንድን": 4226,
      "refle": 4227,
      "ababisha": 4228,
      "cting": 4229,
      "hin": 4230,
      "pills": 4231,
      "abe": 4232,
      "ongole": 4233,
      "athiri": 4234,
      "towards": 4235,
      "abrabɔ": 4236,
      "mpanyimfo": 4237,
      "PA": 4238,
      "enni": 4239,
      "edda": 4240,
      "ungo": 4241,
      "unborn": 4242,
      "iriza": 4243,
      "mentors": 4244,
      "bacterial": 4245,
      "reduced": 4246,
      "fulfilling": 4247,
      "matumizi": 4248,
      "rout": 4249,
      "wazi": 4250,
      "akan": 4251,
      "ural": 4252,
      "monit": 4253,
      "werako": 4254,
      "unique": 4255,
      "subst": 4256,
      "surviv": 4257,
      "ennaku": 4258,
      "okukebera": 4259,
      "counselors": 4260,
      "varies": 4261,
      "physici": 4262,
      "secondary": 4263,
      "Tu": 4264,
      "elim": 4265,
      "sleep": 4266,
      "ሴቶች": 4267,
      "ብቻ": 4268,
      "ወንዶ": 4269,
      "adamu": 4270,
      "prophy": 4271,
      "sajja": 4272,
      "mmofra": 4273,
      "sensitivity": 4274,
      "influen": 4275,
      "scienti": 4276,
      "misconceptions": 4277,
      "dadwen": 4278,
      "listen": 4279,
      "የማ": 4280,
      "onko": 4281,
      "rewa": 4282,
      "kuref": 4283,
      "omen": 4284,
      "prog": 4285,
      "exp": 4286,
      "ource": 4287,
      "lifelong": 4288,
      "idazole": 4289,
      "regard": 4290,
      "kurefusha": 4291,
      "Ng": 4292,
      "ባለ": 4293,
      "alone": 4294,
      "tious": 4295,
      "ists": 4296,
      "andi": 4297,
      "irundi": 4298,
      "akwata": 4299,
      "telefon": 4300,
      "ziganya": 4301,
      "amanneɛbɔfo": 4302,
      "ዎችን": 4303,
      "studies": 4304,
      "መጠቀም": 4305,
      "Afotu": 4306,
      "መም": 4307,
      "ofaa": 4308,
      "tract": 4309,
      "peated": 4310,
      "eyisa": 4311,
      "nyarewa": 4312,
      "workers": 4313,
      "soronko": 4314,
      "ituufu": 4315,
      "LGV": 4316,
      "coping": 4317,
      "physician": 4318,
      "prophylaxis": 4319,
      "Kino": 4320,
      "eya": 4321,
      "wɔpɛ": 4322,
      "mpango": 4323,
      "biako": 4324,
      "wangu": 4325,
      "makers": 4326,
      "materials": 4327,
      "bbakitiiriya": 4328,
      "ለሁ": 4329,
      "ሎች": 4330,
      "tiibwa": 4331,
      "kad": 4332,
      "wɔate": 4333,
      "food": 4334,
      "asiw": 4335,
      "Consider": 4336,
      "mwongozo": 4337,
      "enth": 4338,
      "regi": 4339,
      "kum": 4340,
      "mukwano": 4341,
      "liano": 4342,
      "ekir": 4343,
      "Adwene": 4344,
      "wenye": 4345,
      "ebyobulamu": 4346,
      "okukula": 4347,
      "zinaz": 4348,
      "Seeking": 4349,
      "ɔyaresafo": 4350,
      "10": 4351,
      "Omuntu": 4352,
      "hours": 4353,
      "hitaji": 4354,
      "ɛhaw": 4355,
      "wamu": 4356,
      "least": 4357,
      "docu": 4358,
      "earli": 4359,
      "okukuyamba": 4360,
      "speciali": 4361,
      "guidelines": 4362,
      "determine": 4363,
      "resilience": 4364,
      "Hwɛ": 4365,
      "zuri": 4366,
      "ሊያ": 4367,
      "እር": 4368,
      "inate": 4369,
      "diversity": 4370,
      "ebikozesebwa": 4371,
      "redness": 4372,
      "employ": 4373,
      "Where": 4374,
      "Offer": 4375,
      "specimen": 4376,
      "Ndi": 4377,
      "akye": 4378,
      "okunoonya": 4379,
      "daabu": 4380,
      "prevented": 4381,
      "deliver": 4382,
      "Social": 4383,
      "shared": 4384,
      "okusaasaana": 4385,
      "kolwa": 4386,
      "Org": 4387,
      "ampli": 4388,
      "nat": 4389,
      "አደ": 4390,
      "onda": 4391,
      "alter": 4392,
      "kuji": 4393,
      "arly": 4394,
      "wilini": 4395,
      "yɛfo": 4396,
      "ahyia": 4397,
      "etal": 4398,
      "MTCT": 4399,
      "atenka": 4400,
      "records": 4401,
      "kas": 4402,
      "oin": 4403,
      "soro": 4404,
      "neu": 4405,
      "wɔbɛfa": 4406,
      "abuse": 4407,
      "clusive": 4408,
      "goberera": 4409,
      "GBV": 4410,
      "Ko": 4411,
      "ለት": 4412,
      "ሕክምና": 4413,
      "never": 4414,
      "death": 4415,
      "gran": 4416,
      "abamu": 4417,
      "New": 4418,
      "Access": 4419,
      "conversations": 4420,
      "ወቅ": 4421,
      "olwe": 4422,
      "tua": 4423,
      "unclear": 4424,
      "futa": 4425,
      "tangidde": 4426,
      "jaundi": 4427,
      "ekitiibwa": 4428,
      "Community": 4429,
      "fautiana": 4430,
      "ኮንዶም": 4431,
      "ወንዶች": 4432,
      "jaundice": 4433,
      "jinsi": 4434,
      "nkwa": 4435,
      "pt": 4436,
      "vina": 4437,
      "musawo": 4438,
      "addi": 4439,
      "okuvubuka": 4440,
      "woanya": 4441,
      "outside": 4442,
      "feed": 4443,
      "anyone": 4444,
      "transmitting": 4445,
      "presence": 4446,
      "bintu": 4447,
      "000": 4448,
      "learning": 4449,
      "recognize": 4450,
      "ግብረ": 4451,
      "kid": 4452,
      "ደር": 4453,
      "hogran": 4454,
      "ereum": 4455,
      "jju": 4456,
      "Acquired": 4457,
      "okwawukana": 4458,
      "uloma": 4459,
      "marginalized": 4460,
      "hogranuloma": 4461,
      "hari": 4462,
      "wendo": 4463,
      "ins": 4464,
      "toster": 4465,
      "personalized": 4466,
      "okuvaako": 4467,
      "afotuo": 4468,
      "hyeɛ": 4469,
      "shiriki": 4470,
      "tosterone": 4471,
      "roles": 4472,
      "arr": 4473,
      "kiasi": 4474,
      "obwer": 4475,
      "followed": 4476,
      "consistent": 4477,
      "visible": 4478,
      "Waliwo": 4479,
      "regardless": 4480,
      "Foc": 4481,
      "Me": 4482,
      "vy": 4483,
      "ɛw": 4484,
      "okutegeera": 4485,
      "suspec": 4486,
      "proto": 4487,
      "umla": 4488,
      "Explain": 4489,
      "spaces": 4490,
      "Respect": 4491,
      "justice": 4492,
      "Wadde": 4493,
      "ded": 4494,
      "hes": 4495,
      "secre": 4496,
      "abom": 4497,
      "outreach": 4498,
      "akalina": 4499,
      "anyiddwa": 4500,
      "perman": 4501,
      "doesn": 4502,
      "marri": 4503,
      "systems": 4504,
      "testicles": 4505,
      "judgmental": 4506,
      "tunzaji": 4507,
      "akanni": 4508,
      "here": 4509,
      "late": 4510,
      "tera": 4511,
      "ሄርፒስ": 4512,
      "institu": 4513,
      "mad": 4514,
      "suc": 4515,
      "aggumba": 4516,
      "erikale": 4517,
      "jjanjab": 4518,
      "impan": 4519,
      "amoto": 4520,
      "currently": 4521,
      "ክላሚ": 4522,
      "Nkɔ": 4523,
      "Wor": 4524,
      "tar": 4525,
      "ጋር": 4526,
      "kibinafsi": 4527,
      "vix": 4528,
      "nnabaana": 4529,
      "ataa": 4530,
      "nkitahodiɛ": 4531,
      "ebirala": 4532,
      "judgment": 4533,
      "elf": 4534,
      "ኢንፌክሽን": 4535,
      "Women": 4536,
      "require": 4537,
      "however": 4538,
      "abana": 4539,
      "appoint": 4540,
      "ories": 4541,
      "wasiwasi": 4542,
      "image": 4543,
      "Ati": 4544,
      "Ly": 4545,
      "ayinza": 4546,
      "etu": 4547,
      "swe": 4548,
      "zadde": 4549,
      "ጣም": 4550,
      "sobo": 4551,
      "foc": 4552,
      "gumu": 4553,
      "monog": 4554,
      "ebye": 4555,
      "single": 4556,
      "Ndiyo": 4557,
      "Lymp": 4558,
      "monogam": 4559,
      "jamii": 4560,
      "anan": 4561,
      "kuling": 4562,
      "taaga": 4563,
      "ched": 4564,
      "manif": 4565,
      "biribi": 4566,
      "interactions": 4567,
      "kisobola": 4568,
      "nsonsonoe": 4569,
      "kulingana": 4570,
      "fur": 4571,
      "tab": 4572,
      "erit": 4573,
      "ofi": 4574,
      "obulumi": 4575,
      "kwaso": 4576,
      "parent": 4577,
      "assment": 4578,
      "biro": 4579,
      "mmerɛw": 4580,
      "program": 4581,
      "hormones": 4582,
      "okumira": 4583,
      "Media": 4584,
      "nkrasɛm": 4585,
      "kadhaa": 4586,
      "Care": 4587,
      "Ven": 4588,
      "mbal": 4589,
      "ለማ": 4590,
      "wango": 4591,
      "post": 4592,
      "ebiri": 4593,
      "cision": 4594,
      "Peer": 4595,
      "levels": 4596,
      "prayer": 4597,
      "Wee": 4598,
      "tre": 4599,
      "ale": 4600,
      "disseminated": 4601,
      "amagezi": 4602,
      "alibwa": 4603,
      "famili": 4604,
      "management": 4605,
      "Early": 4606,
      "Lim": 4607,
      "nny": 4608,
      "ባት": 4609,
      "ገድ": 4610,
      "thi": 4611,
      "mach": 4612,
      "erigema": 4613,
      "ogwa": 4614,
      "ntya": 4615,
      "zingira": 4616,
      "mmabaabere": 4617,
      "ቫይረስ": 4618,
      "Focus": 4619,
      "Kɔ": 4620,
      "equality": 4621,
      "erec": 4622,
      "alum": 4623,
      "sio": 4624,
      "ici": 4625,
      "okukuwa": 4626,
      "raise": 4627,
      "መድኃ": 4628,
      "learn": 4629,
      "design": 4630,
      "entuufu": 4631,
      "zaalaggumba": 4632,
      "nurse": 4633,
      "success": 4634,
      "Anal": 4635,
      "events": 4636,
      "integr": 4637,
      "edde": 4638,
      "okuwulira": 4639,
      "compe": 4640,
      "እንዳ": 4641,
      "okusinga": 4642,
      "Maambukizi": 4643,
      "choice": 4644,
      "onyesha": 4645,
      "aduan": 4646,
      "mmerantebere": 4647,
      "strains": 4648,
      "Kyerɛ": 4649,
      "Aho": 4650,
      "Less": 4651,
      "uation": 4652,
      "ang": 4653,
      "along": 4654,
      "estro": 4655,
      "afu": 4656,
      "paras": 4657,
      "adili": 4658,
      "ongoing": 4659,
      "character": 4660,
      "nneyɛeɛ": 4661,
      "circum": 4662,
      "kuzingatia": 4663,
      "abaserikale": 4664,
      "matokeo": 4665,
      "ክላሚዲያ": 4666,
      "janj": 4667,
      "lina": 4668,
      "wɔato": 4669,
      "seed": 4670,
      "cervix": 4671,
      "ambukizo": 4672,
      "orient": 4673,
      "openly": 4674,
      "Results": 4675,
      "receiving": 4676,
      "honam": 4677,
      "90": 4678,
      "Gonorrhoeae": 4679,
      "yna": 4680,
      "rethral": 4681,
      "mus": 4682,
      "ouble": 4683,
      "dily": 4684,
      "ime": 4685,
      "supporting": 4686,
      "products": 4687,
      "pregnancies": 4688,
      "bacterium": 4689,
      "kutofautiana": 4690,
      "urethral": 4691,
      "okwongera": 4692,
      "policymakers": 4693,
      "uterus": 4694,
      "evolved": 4695,
      "Atipɛn": 4696,
      "estrogen": 4697,
      "Aka": 4698,
      "Self": 4699,
      "made": 4700,
      "agal": 4701,
      "kisha": 4702,
      "approaches": 4703,
      "facilit": 4704,
      "jects": 4705,
      "cloth": 4706,
      "mmɔdenbɔ": 4707,
      "headache": 4708,
      "ynamic": 4709,
      "bako": 4710,
      "psycho": 4711,
      "በጣም": 4712,
      "mulimu": 4713,
      "bodily": 4714,
      "yoleka": 4715,
      "iliana": 4716,
      "vudde": 4717,
      "obulala": 4718,
      "advocating": 4719,
      "expectations": 4720,
      "bsa": 4721,
      "hab": 4722,
      "ፈል": 4723,
      "build": 4724,
      "bee": 4725,
      "okugeza": 4726,
      "obuwe": 4727,
      "inayo": 4728,
      "keber": 4729,
      "adwenn": 4730,
      "ggwe": 4731,
      "considering": 4732,
      "mutual": 4733,
      "relev": 4734,
      "exercise": 4735,
      "Type": 4736,
      "survivors": 4737,
      "NG": 4738,
      "Open": 4739,
      "eyinza": 4740,
      "xy": 4741,
      "ɛte": 4742,
      "tili": 4743,
      "wɔmfa": 4744,
      "omul": 4745,
      "parental": 4746,
      "auzito": 4747,
      "pimaji": 4748,
      "kiso": 4749,
      "cope": 4750,
      "Medical": 4751,
      "ogue": 4752,
      "achieve": 4753,
      "bak": 4754,
      "mingi": 4755,
      "በቀ": 4756,
      "enee": 4757,
      "nabo": 4758,
      "begin": 4759,
      "obuwa": 4760,
      "Inter": 4761,
      "chagu": 4762,
      "trained": 4763,
      "fostering": 4764,
      "janjaba": 4765,
      "ks": 4766,
      "nanso": 4767,
      "mutendera": 4768,
      "asusuw": 4769,
      "species": 4770,
      "ugonjwa": 4771,
      "nkɔsoɔ": 4772,
      "ekyo": 4773,
      "After": 4774,
      "weraliikirira": 4775,
      "Lymphogranuloma": 4776,
      "Venereum": 4777,
      "Po": 4778,
      "benya": 4779,
      "tigma": 4780,
      "dial": 4781,
      "chini": 4782,
      "chimpan": 4783,
      "bangi": 4784,
      "tailored": 4785,
      "specifically": 4786,
      "societal": 4787,
      "hygiene": 4788,
      "techn": 4789,
      "sweat": 4790,
      "ynamics": 4791,
      "Bo": 4792,
      "Gr": 4793,
      "pia": 4794,
      "much": 4795,
      "assi": 4796,
      "wɔte": 4797,
      "tewali": 4798,
      "amaaso": 4799,
      "pleas": 4800,
      "bwongo": 4801,
      "hɔfo": 4802,
      "wezekano": 4803,
      "mwenzi": 4804,
      "closely": 4805,
      ",\"": 4806,
      "Cons": 4807,
      "Over": 4808,
      "ɔfoɔ": 4809,
      "ሆኑ": 4810,
      "threat": 4811,
      "toa": 4812,
      "unintended": 4813,
      "cycle": 4814,
      "communicate": 4815,
      "count": 4816,
      "soreness": 4817,
      "endele": 4818,
      "confidence": 4819,
      "opportunistic": 4820,
      "ndɔm": 4821,
      "General": 4822,
      ")?": 4823,
      "Rom": 4824,
      "Tuli": 4825,
      "kwo": 4826,
      "lack": 4827,
      "mee": 4828,
      "ኒቶች": 4829,
      "acid": 4830,
      "wubetumi": 4831,
      "gendereza": 4832,
      "wobedi": 4833,
      "changamoto": 4834,
      "Practice": 4835,
      "failure": 4836,
      "Endwadde": 4837,
      "websites": 4838,
      "bsaet": 4839,
      "adwennwen": 4840,
      "Tuliici": 4841,
      "apaw": 4842,
      "dra": 4843,
      "mengine": 4844,
      "Ɛho": 4845,
      "ህክምና": 4846,
      "intrau": 4847,
      "encounter": 4848,
      "enviiri": 4849,
      "okujjanjaba": 4850,
      "niques": 4851,
      "partnerships": 4852,
      "higher": 4853,
      "Having": 4854,
      "Online": 4855,
      "Communication": 4856,
      "okwogera": 4857,
      "combination": 4858,
      "monogamous": 4859,
      "kisoboka": 4860,
      "gana": 4861,
      "misa": 4862,
      "ሙሉ": 4863,
      "የጤና": 4864,
      "kubanga": 4865,
      "kushiriki": 4866,
      "tric": 4867,
      "temp": 4868,
      "lips": 4869,
      "tively": 4870,
      "ebika": 4871,
      "ebizibu": 4872,
      "pende": 4873,
      "possibility": 4874,
      "But": 4875,
      "faithful": 4876,
      "view": 4877,
      "Nhyehyɛe": 4878,
      "besi": 4879,
      "imi": 4880,
      "unting": 4881,
      "termin": 4882,
      "tically": 4883,
      "kwenye": 4884,
      "painless": 4885,
      "antibodies": 4886,
      "traced": 4887,
      "epira": 4888,
      "ተላለፍ": 4889,
      "carry": 4890,
      "emphasize": 4891,
      "nyi": 4892,
      "pir": 4893,
      "speak": 4894,
      "በተ": 4895,
      "hotlines": 4896,
      "itable": 4897,
      "tewee": 4898,
      "agyina": 4899,
      "accor": 4900,
      "special": 4901,
      "Contr": 4902,
      "facility": 4903,
      "cohol": 4904,
      "identities": 4905,
      "originated": 4906,
      "populations": 4907,
      "ujauzito": 4908,
      "Bec": 4909,
      "HO": 4910,
      "bit": 4911,
      "gam": 4912,
      "የት": 4913,
      "tiary": 4914,
      "mat": 4915,
      "beasu": 4916,
      "okulowooza": 4917,
      "tron": 4918,
      "obutuufu": 4919,
      "availability": 4920,
      "afotufo": 4921,
      "ɛbɛyɛ": 4922,
      "kaleeta": 4923,
      "Hapa": 4924,
      "St": 4925,
      "ums": 4926,
      "would": 4927,
      "toys": 4928,
      "tures": 4929,
      "baawo": 4930,
      "portation": 4931,
      "saidizi": 4932,
      "occurs": 4933,
      "kusababisha": 4934,
      "kolagana": 4935,
      "logical": 4936,
      "olwekyo": 4937,
      "Watu": 4938,
      "ip": 4939,
      "enna": 4940,
      "tries": 4941,
      "yizi": 4942,
      "yinsɛn": 4943,
      "mmusua": 4944,
      "commit": 4945,
      "okulaba": 4946,
      "ology": 4947,
      "ɛbɛboa": 4948,
      "Sukuu": 4949,
      "ምልክት": 4950,
      "Counseling": 4951,
      "enthood": 4952,
      "earliest": 4953,
      "Kenya": 4954,
      "WHO": 4955,
      "gre": 4956,
      "uhusiano": 4957,
      "vinaweza": 4958,
      "yongera": 4959,
      "kuziyiza": 4960,
      "hosp": 4961,
      "yee": 4962,
      "abakugu": 4963,
      "ekika": 4964,
      "tesɛm": 4965,
      "karibu": 4966,
      "Nhwehwɛ": 4967,
      "kill": 4968,
      "Ɛsɛ": 4969,
      "maalum": 4970,
      "okuna": 4971,
      "sooka": 4972,
      "zima": 4973,
      "hizi": 4974,
      "monia": 4975,
      "nnu": 4976,
      "valuable": 4977,
      "tumbula": 4978,
      "የአባላዘር": 4979,
      "Collabor": 4980,
      "neumonia": 4981,
      "Because": 4982,
      "28": 4983,
      "Ap": 4984,
      "ewa": 4985,
      "ff": 4986,
      "hwee": 4987,
      "ption": 4988,
      "ɔnk": 4989,
      "ብል": 4990,
      "bagu": 4991,
      "yiti": 4992,
      "focus": 4993,
      "ekisa": 4994,
      "Promo": 4995,
      "examples": 4996,
      "mtoa": 4997,
      "makes": 4998,
      "shirika": 4999,
      "akyerɛkyerɛfo": 5000,
      "assault": 5001,
      "Ser": 5002,
      "onny": 5003,
      "esinga": 5004,
      "abakyala": 5005,
      "liko": 5006,
      "ahyehyɛdeɛ": 5007,
      "አንድ": 5008,
      "Nhwehwɛmu": 5009,
      "Nhomasua": 5010,
      "blin": 5011,
      "down": 5012,
      "gonorrhoeae": 5013,
      "kuny": 5014,
      "kuele": 5015,
      "prenatal": 5016,
      "sugg": 5017,
      "tele": 5018,
      "mpo": 5019,
      "duru": 5020,
      "hwɛfo": 5021,
      "stomach": 5022,
      "thoughts": 5023,
      "genetic": 5024,
      "Fam": 5025,
      "Okwe": 5026,
      "Usaidizi": 5027,
      "YM": 5028,
      "dynamics": 5029,
      "እችላ": 5030,
      "onoc": 5031,
      "maambukizo": 5032,
      "trenee": 5033,
      "zaalibwa": 5034,
      "hakuna": 5035,
      "ational": 5036,
      "mpenzi": 5037,
      "iriki": 5038,
      "pose": 5039,
      "gating": 5040,
      "developing": 5041,
      "harassment": 5042,
      "acks": 5043,
      "ምልክቶች": 5044,
      "families": 5045,
      "dialogue": 5046,
      "lwe": 5047,
      "ying": 5048,
      "onde": 5049,
      "enkolagana": 5050,
      "wao": 5051,
      "okujjanjabibwa": 5052,
      "imbali": 5053,
      "gain": 5054,
      "cyc": 5055,
      "okwebuuza": 5056,
      "emirundi": 5057,
      "chancre": 5058,
      "discover": 5059,
      "ምንም": 5060,
      "Also": 5061,
      "responsib": 5062,
      "mutually": 5063,
      "tools": 5064,
      "muscle": 5065,
      "Sta": 5066,
      "Stigma": 5067,
      "osa": 5068,
      "trich": 5069,
      "bɛbɔ": 5070,
      "kose": 5071,
      "ifi": 5072,
      "victi": 5073,
      "vuna": 5074,
      "bullying": 5075,
      "testosterone": 5076,
      "dhidi": 5077,
      "kutafuta": 5078,
      "voices": 5079,
      "birowoozo": 5080,
      "Limit": 5081,
      "according": 5082,
      "Eddagala": 5083,
      "Part": 5084,
      "nye": 5085,
      "uwezekano": 5086,
      "alo": 5087,
      "kutu": 5088,
      "deep": 5089,
      "beere": 5090,
      "imwa": 5091,
      "ulu": 5092,
      "portra": 5093,
      "byonna": 5094,
      "asɛyɛde": 5095,
      "ebiva": 5096,
      "unao": 5097,
      "ሰውነት": 5098,
      "hands": 5099,
      "adanse": 5100,
      "government": 5101,
      "alterna": 5102,
      "mbalimbali": 5103,
      "YMK": 5104,
      "Don": 5105,
      "kitegeeza": 5106,
      "mor": 5107,
      "pur": 5108,
      "past": 5109,
      "utunzaji": 5110,
      "tidua": 5111,
      "abeera": 5112,
      "Kiki": 5113,
      "atɛntrenee": 5114,
      "tindo": 5115,
      "orientation": 5116,
      "Hokwan": 5117,
      "sol": 5118,
      "inv": 5119,
      "kug": 5120,
      "sign": 5121,
      "sometimes": 5122,
      "nnina": 5123,
      "Trac": 5124,
      "nkurɔfoɔ": 5125,
      "wobɛfa": 5126,
      "hormone": 5127,
      "micro": 5128,
      "directly": 5129,
      "techniques": 5130,
      "representations": 5131,
      "natural": 5132,
      "institutions": 5133,
      "እችላለሁ": 5134,
      "Ba": 5135,
      "cla": 5136,
      "pus": 5137,
      "ኮሞ": 5138,
      "maanyi": 5139,
      "toffaali": 5140,
      "seke": 5141,
      "akyɛ": 5142,
      "okuzimba": 5143,
      "word": 5144,
      "valid": 5145,
      "fight": 5146,
      "Tell": 5147,
      "advisable": 5148,
      "scientific": 5149,
      "16": 5150,
      "Kasa": 5151,
      "Kum": 5152,
      "UD": 5153,
      "Wa": 5154,
      "creating": 5155,
      "equ": 5156,
      "mission": 5157,
      "pany": 5158,
      "ምክ": 5159,
      "kuk": 5160,
      "asua": 5161,
      "wezi": 5162,
      "aged": 5163,
      "pema": 5164,
      "contract": 5165,
      "onjo": 5166,
      "center": 5167,
      "okukakasa": 5168,
      "marriage": 5169,
      "parasite": 5170,
      "relevant": 5171,
      "At": 5172,
      "Even": 5173,
      "Hormon": 5174,
      "SIV": 5175,
      "Treat": 5176,
      "ደም": 5177,
      "enough": 5178,
      "maj": 5179,
      "irina": 5180,
      "sell": 5181,
      "babu": 5182,
      "proced": 5183,
      "papa": 5184,
      "kokwaw": 5185,
      "interse": 5186,
      "Antiretroviral": 5187,
      "desire": 5188,
      "echanis": 5189,
      "suspect": 5190,
      "Ris": 5191,
      "School": 5192,
      "deri": 5193,
      "intima": 5194,
      "mũ": 5195,
      "itation": 5196,
      "yake": 5197,
      "sie": 5198,
      "okukwata": 5199,
      "lia": 5200,
      "align": 5201,
      "book": 5202,
      "transportation": 5203,
      "dry": 5204,
      "longer": 5205,
      "Ef": 5206,
      "gra": 5207,
      "ሴት": 5208,
      "tiza": 5209,
      "aspec": 5210,
      "wɔahyɛ": 5211,
      "agu": 5212,
      "kyere": 5213,
      "ekis": 5214,
      "kyerɛw": 5215,
      "wonnya": 5216,
      "referring": 5217,
      "origins": 5218,
      "touching": 5219,
      "irritation": 5220,
      "dodow": 5221,
      "circumcision": 5222,
      "aspects": 5223,
      "Lwaki": 5224,
      "Mwilini": 5225,
      "Ns": 5226,
      "ሳይ": 5227,
      "ያል": 5228,
      "ዳን": 5229,
      "onek": 5230,
      "enkwaso": 5231,
      "repu": 5232,
      "kuti": 5233,
      "mug": 5234,
      "ney": 5235,
      "aking": 5236,
      "usta": 5237,
      "wɔnyɛ": 5238,
      "adidi": 5239,
      "fulness": 5240,
      "wonye": 5241,
      "put": 5242,
      "actively": 5243,
      "standards": 5244,
      "secretions": 5245,
      "yitiro": 5246,
      "BC": 5247,
      "ian": 5248,
      "ሰዎች": 5249,
      "remo": 5250,
      "yagala": 5251,
      "hear": 5252,
      "trɛw": 5253,
      "kipimo": 5254,
      "international": 5255,
      "vaccination": 5256,
      "coer": 5257,
      "Parenthood": 5258,
      "conversation": 5259,
      "Both": 5260,
      "IUD": 5261,
      "kera": 5262,
      "natu": 5263,
      "uu": 5264,
      "የወ": 5265,
      "inna": 5266,
      "mas": 5267,
      "tofauti": 5268,
      "nam": 5269,
      "hii": 5270,
      "apps": 5271,
      "drin": 5272,
      "plication": 5273,
      "kasaasa": 5274,
      "Which": 5275,
      "offering": 5276,
      "empowerment": 5277,
      "Culture": 5278,
      "Planned": 5279,
      "vunaanyizibwa": 5280,
      "::": 5281,
      "COVID": 5282,
      "Mara": 5283,
      "Olu": 5284,
      "egi": 5285,
      "nucleic": 5286,
      "ኋላ": 5287,
      "onge": 5288,
      "wɔma": 5289,
      "nsɛmmisa": 5290,
      "something": 5291,
      "myths": 5292,
      "katee": 5293,
      "borns": 5294,
      "afiki": 5295,
      "nsakraeɛ": 5296,
      "milk": 5297,
      "indano": 5298,
      "thinking": 5299,
      "ustawi": 5300,
      "dness": 5301,
      "source": 5302,
      "yansi": 5303,
      "ህመም": 5304,
      "ሪኮሞ": 5305,
      "በኋላ": 5306,
      "alcohol": 5307,
      "kudu": 5308,
      "conj": 5309,
      "obutoffaali": 5310,
      "vitis": 5311,
      "risky": 5312,
      "akwatibwa": 5313,
      "fulani": 5314,
      "asoɛ": 5315,
      "acceptance": 5316,
      "Legal": 5317,
      "containing": 5318,
      "monitoring": 5319,
      "permanent": 5320,
      "PID": 5321,
      "PPA": 5322,
      "pat": 5323,
      "wofo": 5324,
      "ening": 5325,
      "musi": 5326,
      "sivity": 5327,
      "wiase": 5328,
      "kibwa": 5329,
      "ression": 5330,
      "akwanhwɛ": 5331,
      "reduces": 5332,
      "collect": 5333,
      "continue": 5334,
      "think": 5335,
      "assessment": 5336,
      "hakikisha": 5337,
      "Yi": 5338,
      "jac": 5339,
      "zee": 5340,
      "ሥጋ": 5341,
      "ካን": 5342,
      "repeated": 5343,
      "abali": 5344,
      "okulu": 5345,
      "illo": 5346,
      "ushauri": 5347,
      "uny": 5348,
      "stric": 5349,
      "empiso": 5350,
      "contraceptives": 5351,
      "itaal": 5352,
      "teɛteɛ": 5353,
      "okay": 5354,
      "ntawntaw": 5355,
      "ified": 5356,
      "Kumbuka": 5357,
      "Vi": 5358,
      "fall": 5359,
      "ህን": 5360,
      "ፈሳ": 5361,
      "relax": 5362,
      "kukola": 5363,
      "omesa": 5364,
      "wopɛ": 5365,
      "idwuma": 5366,
      "abaana": 5367,
      "inform": 5368,
      "sense": 5369,
      "firidwuma": 5370,
      "travel": 5371,
      "Healthy": 5372,
      "shorter": 5373,
      "Develop": 5374,
      "Pregnant": 5375,
      "history": 5376,
      "wulire": 5377,
      "accessible": 5378,
      "routine": 5379,
      "99": 5380,
      "Eyi": 5381,
      "event": 5382,
      "wengine": 5383,
      "በአ": 5384,
      "ክት": 5385,
      "ery": 5386,
      "tivitis": 5387,
      "establish": 5388,
      "giving": 5389,
      "quate": 5390,
      "ahosan": 5391,
      "ቫይረሱ": 5392,
      "context": 5393,
      "julikana": 5394,
      "obungi": 5395,
      "tabia": 5396,
      "tira": 5397,
      "deal": 5398,
      "becomes": 5399,
      "okute": 5400,
      "ahunu": 5401,
      "Indi": 5402,
      "tandika": 5403,
      "detects": 5404,
      "recommendations": 5405,
      "yanayo": 5406,
      "okutwalira": 5407,
      "ujumla": 5408,
      "buuzo": 5409,
      "explore": 5410,
      "sickness": 5411,
      "vulner": 5412,
      "Akafuba": 5413,
      "Ask": 5414,
      "Cho": 5415,
      "cap": 5416,
      "lvic": 5417,
      "ቁስ": 5418,
      "incon": 5419,
      "biina": 5420,
      "inawezekana": 5421,
      "yibwa": 5422,
      "atetesɛm": 5423,
      "okwen": 5424,
      "empe": 5425,
      "ambazo": 5426,
      "bonna": 5427,
      "kujua": 5428,
      "awofoɔ": 5429,
      "Only": 5430,
      "Once": 5431,
      "hintidua": 5432,
      "substance": 5433,
      "mmoja": 5434,
      "power": 5435,
      "tw": 5436,
      "buzi": 5437,
      "lewa": 5438,
      "forums": 5439,
      "bile": 5440,
      "eriweweeza": 5441,
      "ebiseera": 5442,
      "asii": 5443,
      "perpe": 5444,
      "countries": 5445,
      "couraging": 5446,
      "surr": 5447,
      "miscarri": 5448,
      "ከላከያ": 5449,
      "155": 5450,
      "feedback": 5451,
      "pendeke": 5452,
      "echanisms": 5453,
      "cou": 5454,
      "mb": 5455,
      "ints": 5456,
      "tips": 5457,
      "biwa": 5458,
      "ahome": 5459,
      "anywhere": 5460,
      "kɔndɔm": 5461,
      "atipɛnfoɔ": 5462,
      "environments": 5463,
      "onyereza": 5464,
      "Hii": 5465,
      "tenten": 5466,
      "backgrounds": 5467,
      "NGO": 5468,
      "tronidazole": 5469,
      "illoma": 5470,
      "Know": 5471,
      "ups": 5472,
      "ywa": 5473,
      "ባቸው": 5474,
      "mapema": 5475,
      "depression": 5476,
      "olagana": 5477,
      "okukozesebwa": 5478,
      "suro": 5479,
      "kizaalaggumba": 5480,
      "hiv": 5481,
      "bwabwe": 5482,
      "plines": 5483,
      "Conf": 5484,
      "akyerɛw": 5485,
      "kirungi": 5486,
      "indicates": 5487,
      "patikanaji": 5488,
      "peeing": 5489,
      "vinavyo": 5490,
      "Fee": 5491,
      "Li": 5492,
      "data": 5493,
      "vous": 5494,
      "ሊድን": 5495,
      "ከተ": 5496,
      "enh": 5497,
      "kuyinza": 5498,
      "tubes": 5499,
      "mps": 5500,
      "amabwa": 5501,
      "arifa": 5502,
      "ebikwata": 5503,
      "menstruation": 5504,
      "Discus": 5505,
      "latent": 5506,
      "focused": 5507,
      "endeleo": 5508,
      "Abu": 5509,
      "Em": 5510,
      "cross": 5511,
      "foforɔ": 5512,
      "nnyin": 5513,
      "rup": 5514,
      "inside": 5515,
      "esɛm": 5516,
      "ligi": 5517,
      "mobile": 5518,
      "nipa": 5519,
      "resistance": 5520,
      "ender": 5521,
      "sts": 5522,
      "rather": 5523,
      "preventable": 5524,
      "penzi": 5525,
      "leetera": 5526,
      "tambuzi": 5527,
      "evaluation": 5528,
      "evaluated": 5529,
      "abdominal": 5530,
      "discovered": 5531,
      "portray": 5532,
      "800": 5533,
      "Other": 5534,
      "kali": 5535,
      "site": 5536,
      "Ɛdenam": 5537,
      "መከላከል": 5538,
      "yaw": 5539,
      "mia": 5540,
      "stre": 5541,
      "wɛbsaet": 5542,
      "said": 5543,
      "ounding": 5544,
      "birirwa": 5545,
      "ahiadeɛ": 5546,
      "limited": 5547,
      "books": 5548,
      "Aman": 5549,
      "Na": 5550,
      "dwo": 5551,
      "gere": 5552,
      "jur": 5553,
      "land": 5554,
      "ority": 5555,
      "okweraliikirira": 5556,
      "Obubonero": 5557,
      "ogical": 5558,
      "omoozebwa": 5559,
      "reputable": 5560,
      "Clap": 5561,
      "mbi": 5562,
      "ዋል": 5563,
      "atwa": 5564,
      "ford": 5565,
      "mothers": 5566,
      "ports": 5567,
      "aseera": 5568,
      "pekee": 5569,
      "amagi": 5570,
      "nhumu": 5571,
      "provided": 5572,
      "counsell": 5573,
      "adwenemhaw": 5574,
      "respecting": 5575,
      "pared": 5576,
      "additional": 5577,
      "jitaal": 5578,
      "rely": 5579,
      "bumps": 5580,
      "wel": 5581,
      "ebimu": 5582,
      "central": 5583,
      "nervous": 5584,
      "Educate": 5585,
      "navigating": 5586,
      "nutrition": 5587,
      "ብልት": 5588,
      "Gre": 5589,
      "Rare": 5590,
      "ctions": 5591,
      "ked": 5592,
      "misha": 5593,
      "oyo": 5594,
      "wofi": 5595,
      "ልጅ": 5596,
      "ማን": 5597,
      "ገኛ": 5598,
      "kubiri": 5599,
      "kusaidia": 5600,
      "mature": 5601,
      "yao": 5602,
      "dijitaal": 5603,
      "hemu": 5604,
      "okutumbula": 5605,
      "gazi": 5606,
      "omuwendo": 5607,
      "disor": 5608,
      "erimu": 5609,
      "auth": 5610,
      "zees": 5611,
      "Okukebera": 5612,
      "kuumi": 5613,
      "passion": 5614,
      "covered": 5615,
      "ችልም": 5616,
      "teweetangidde": 5617,
      "Individual": 5618,
      "25": 5619,
      "kukebera": 5620,
      "ice": 5621,
      "banbɔ": 5622,
      "finding": 5623,
      "ception": 5624,
      "bulwadde": 5625,
      "processes": 5626,
      "pping": 5627,
      "connect": 5628,
      "agencies": 5629,
      "inconclusive": 5630,
      "Rarely": 5631,
      "Tra": 5632,
      "biseera": 5633,
      "cate": 5634,
      "clap": 5635,
      "ɛs": 5636,
      "ከሰ": 5637,
      "anira": 5638,
      "itendera": 5639,
      "decre": 5640,
      "okugoberera": 5641,
      "congenital": 5642,
      "atemmu": 5643,
      "aseɛ": 5644,
      "ekin": 5645,
      "ambaza": 5646,
      "አይደ": 5647,
      "dɛmdi": 5648,
      "twaa": 5649,
      "attacks": 5650,
      "protozo": 5651,
      "further": 5652,
      "Fati": 5653,
      "Ina": 5654,
      "ትሪኮሞ": 5655,
      "ዳት": 5656,
      "eru": 5657,
      "tie": 5658,
      "atom": 5659,
      "sehemu": 5660,
      "arch": 5661,
      "enters": 5662,
      "wube": 5663,
      "kika": 5664,
      "compon": 5665,
      "kwati": 5666,
      "stin": 5667,
      "eneo": 5668,
      "inclusivity": 5669,
      "kirivu": 5670,
      "believe": 5671,
      "participation": 5672,
      "emikisa": 5673,
      "Particip": 5674,
      "irritability": 5675,
      "esigama": 5676,
      "clothes": 5677,
      "xycyc": 5678,
      "Fatigue": 5679,
      "xycycline": 5680,
      "ddo": 5681,
      "kenne": 5682,
      "zit": 5683,
      "kuza": 5684,
      "mahusu": 5685,
      "hood": 5686,
      "okufa": 5687,
      "sue": 5688,
      "wohu": 5689,
      "obuo": 5690,
      "lususu": 5691,
      "nhye": 5692,
      "cion": 5693,
      "plac": 5694,
      "anyapaa": 5695,
      "Encourage": 5696,
      "responsiveness": 5697,
      "experienced": 5698,
      "Consent": 5699,
      "matory": 5700,
      "Greek": 5701,
      "mahususi": 5702,
      "72": 5703,
      "Adwuma": 5704,
      "Set": 5705,
      "ejac": 5706,
      "atya": 5707,
      "amini": 5708,
      "adap": 5709,
      "uncomfortable": 5710,
      "bɛkɔ": 5711,
      "yizibwa": 5712,
      "bɔbeasu": 5713,
      "pima": 5714,
      "hɔfoɔ": 5715,
      "womb": 5716,
      "anization": 5717,
      "uliziganya": 5718,
      "space": 5719,
      "nkabom": 5720,
      "Understand": 5721,
      "kabiliana": 5722,
      "involvement": 5723,
      "eggi": 5724,
      "husiana": 5725,
      "agenital": 5726,
      "psychological": 5727,
      "Trachoma": 5728,
      "Effec": 5729,
      "illomavirus": 5730,
      "0800": 5731,
      "14": 5732,
      "Acu": 5733,
      "Pol": 5734,
      "kits": 5735,
      "mechanisms": 5736,
      "pneumonia": 5737,
      "wr": 5738,
      "በሚ": 5739,
      "ንያ": 5740,
      "አካ": 5741,
      "ከባ": 5742,
      "ancy": 5743,
      "angira": 5744,
      "iness": 5745,
      "def": 5746,
      "okuwu": 5747,
      "tragenital": 5748,
      "amawulire": 5749,
      "Thera": 5750,
      "advanced": 5751,
      "fie": 5752,
      "binu": 5753,
      "Prevent": 5754,
      "funding": 5755,
      "hyeto": 5756,
      "describe": 5757,
      "STDs": 5758,
      "holders": 5759,
      "sends": 5760,
      "Nkɔmmɔ": 5761,
      "Bere": 5762,
      "Era": 5763,
      "PMTCT": 5764,
      "cli": 5765,
      "ining": 5766,
      "ics": 5767,
      "tahad": 5768,
      "baami": 5769,
      "hamu": 5770,
      "ides": 5771,
      "omuyitiro": 5772,
      "kete": 5773,
      "quick": 5774,
      "ahokokwaw": 5775,
      "stru": 5776,
      "Hel": 5777,
      "nnee": 5778,
      "manageable": 5779,
      "kabla": 5780,
      "kabisa": 5781,
      "husisha": 5782,
      "ምክንያ": 5783,
      "Acute": 5784,
      "tahadhari": 5785,
      "Imp": 5786,
      "Lat": 5787,
      "eyi": 5788,
      "jam": 5789,
      "adam": 5790,
      "sump": 5791,
      "noolwekyo": 5792,
      "miaka": 5793,
      "stake": 5794,
      "fulum": 5795,
      "asɛe": 5796,
      "talking": 5797,
      "kusambaza": 5798,
      "engagement": 5799,
      "milli": 5800,
      "participate": 5801,
      "difficul": 5802,
      "faayo": 5803,
      "watoto": 5804,
      "region": 5805,
      "employment": 5806,
      "morning": 5807,
      "surrounding": 5808,
      "Who": 5809,
      "basa": 5810,
      "ɛb": 5811,
      "ራል": 5812,
      "ሰድ": 5813,
      "ised": 5814,
      "wapo": 5815,
      "entak": 5816,
      "accom": 5817,
      "wewe": 5818,
      "agiro": 5819,
      "unt": 5820,
      "afford": 5821,
      "obubaka": 5822,
      "enea": 5823,
      "vaccinated": 5824,
      "okussa": 5825,
      "cepti": 5826,
      "onnyola": 5827,
      "coercion": 5828,
      "entakera": 5829,
      "Bino": 5830,
      "iz": 5831,
      "ile": 5832,
      "kon": 5833,
      "rals": 5834,
      "ኖር": 5835,
      "ደህን": 5836,
      "kumu": 5837,
      "anda": 5838,
      "amount": 5839,
      "okuky": 5840,
      "hawa": 5841,
      "kifo": 5842,
      "bikwata": 5843,
      "frame": 5844,
      "doxycycline": 5845,
      "boaboa": 5846,
      "ousing": 5847,
      "kwenda": 5848,
      "Tests": 5849,
      "pasu": 5850,
      "environmental": 5851,
      "illnesses": 5852,
      "Pregnancy": 5853,
      "amplify": 5854,
      "Family": 5855,
      "categ": 5856,
      "stinence": 5857,
      "Mati": 5858,
      "mfiridwuma": 5859,
      "rɛ": 5860,
      "race": 5861,
      "ማለት": 5862,
      "already": 5863,
      "kikubwa": 5864,
      "lue": 5865,
      "metumi": 5866,
      "werera": 5867,
      "ebiyinza": 5868,
      "nteaseɛ": 5869,
      "else": 5870,
      "conflict": 5871,
      "stakeholders": 5872,
      "12": 5873,
      "emmere": 5874,
      "ized": 5875,
      "oil": 5876,
      "ssa": 5877,
      "tle": 5878,
      "yiro": 5879,
      "ona": 5880,
      "wɔtaa": 5881,
      "bikolwa": 5882,
      "bikibwa": 5883,
      "affir": 5884,
      "omukyala": 5885,
      "nyingine": 5886,
      "boo": 5887,
      "ticed": 5888,
      "awotwaa": 5889,
      "service": 5890,
      "pains": 5891,
      "organ": 5892,
      "idie": 5893,
      "amuzi": 5894,
      "detection": 5895,
      "Neonatal": 5896,
      "typical": 5897,
      "curric": 5898,
      "washing": 5899,
      "Nnwuma": 5900,
      "ggyamu": 5901,
      "sobozi": 5902,
      "ekisajja": 5903,
      "..": 5904,
      "lwa": 5905,
      "rest": 5906,
      "መር": 5907,
      "ማስ": 5908,
      "’).": 5909,
      "kura": 5910,
      "neennen": 5911,
      "okulam": 5912,
      "atew": 5913,
      "tumiwa": 5914,
      "denneennen": 5915,
      "gyin": 5916,
      "yoyote": 5917,
      "abawangaala": 5918,
      "provides": 5919,
      "fichu": 5920,
      "interest": 5921,
      "ayare": 5922,
      "minis": 5923,
      "crust": 5924,
      "pɛɛ": 5925,
      "multidrug": 5926,
      "researchers": 5927,
      "ɔbabun": 5928,
      "listening": 5929,
      "jjukira": 5930,
      "suggest": 5931,
      "ntawntawdi": 5932,
      "Matibabu": 5933,
      "118": 5934,
      "Hyɛ": 5935,
      "Kondomu": 5936,
      "Nsobola": 5937,
      "ative": 5938,
      "creat": 5939,
      "ganga": 5940,
      "yonjo": 5941,
      "Ɛma": 5942,
      "ɔre": 5943,
      "ሽን": 5944,
      "mawasi": 5945,
      "obusannyalaze": 5946,
      "eezi": 5947,
      "gawa": 5948,
      "ura": 5949,
      "daakye": 5950,
      "cient": 5951,
      "ahotɔ": 5952,
      "akwaahosan": 5953,
      "full": 5954,
      "esiane": 5955,
      "አይችልም": 5956,
      "qualities": 5957,
      "wiiki": 5958,
      "aimed": 5959,
      "remains": 5960,
      "እርግ": 5961,
      "zingiramu": 5962,
      "Feeling": 5963,
      "አይደለም": 5964,
      "mawasiliano": 5965,
      "pone": 5966,
      "ule": 5967,
      "Ɛyɛ": 5968,
      "instruc": 5969,
      "kuhakikisha": 5970,
      "akas": 5971,
      "tual": 5972,
      "ansesɛm": 5973,
      "nipasu": 5974,
      "eria": 5975,
      "phase": 5976,
      "whose": 5977,
      "wontumi": 5978,
      "awava": 5979,
      "animhwɛ": 5980,
      "kirizibwa": 5981,
      "influences": 5982,
      "obtain": 5983,
      "ayɔnk": 5984,
      "general": 5985,
      "trauma": 5986,
      "Myth": 5987,
      "appointments": 5988,
      "kudumisha": 5989,
      "cas": 5990,
      "ik": 5991,
      "tono": 5992,
      "መጣ": 5993,
      "ያሳ": 5994,
      "kukwatibwa": 5995,
      "kukabiliana": 5996,
      "opian": 5997,
      "going": 5998,
      "kuru": 5999,
      "zuul": 6000,
      "difference": 6001,
      "Huduma": 6002,
      "underlying": 6003,
      "ያስፈል": 6004,
      "allowing": 6005,
      "መድሃኒት": 6006,
      "ɔyarehwɛfo": 6007,
      "wrong": 6008,
      "\".": 6009,
      "Mf": 6010,
      "Mental": 6011,
      "UT": 6012,
      "ken": 6013,
      "እም": 6014,
      "tiv": 6015,
      "esis": 6016,
      "teka": 6017,
      "mpɛ": 6018,
      "tingling": 6019,
      "goal": 6020,
      "places": 6021,
      "abakulu": 6022,
      "facing": 6023,
      "ject": 6024,
      "mwingine": 6025,
      "enneeyisa": 6026,
      "touch": 6027,
      "broad": 6028,
      "continuous": 6029,
      "ታከመ": 6030,
      "progression": 6031,
      "erection": 6032,
      "uubirirwa": 6033,
      "untary": 6034,
      "Old": 6035,
      "PC": 6036,
      "የኤች": 6037,
      "dibwa": 6038,
      "ifu": 6039,
      "wɔbɛkɔ": 6040,
      "bino": 6041,
      "idea": 6042,
      "infants": 6043,
      "movements": 6044,
      "miscarriage": 6045,
      "Confid": 6046,
      "quickly": 6047,
      "bakyala": 6048,
      "epi": 6049,
      "ninaweza": 6050,
      "oyagala": 6051,
      "uwe": 6052,
      "ሊያስከት": 6053,
      "በቅ": 6054,
      "ከፍ": 6055,
      "ይወ": 6056,
      "ጣት": 6057,
      "kiwango": 6058,
      "yimu": 6059,
      "restric": 6060,
      "fati": 6061,
      "wona": 6062,
      "regulations": 6063,
      "qualified": 6064,
      "classi": 6065,
      "filled": 6066,
      "mwenye": 6067,
      "okubudaabu": 6068,
      "achie": 6069,
      "reporting": 6070,
      "Ngono": 6071,
      "treme": 6072,
      "intraurethral": 6073,
      "Treatment": 6074,
      "onekana": 6075,
      "stream": 6076,
      "Nkɔmmɔbɔ": 6077,
      "Ar": 6078,
      "Bl": 6079,
      "housing": 6080,
      "lwaki": 6081,
      "pun": 6082,
      "ɛtaa": 6083,
      "wɔama": 6084,
      "determin": 6085,
      "diarr": 6086,
      "notify": 6087,
      "bation": 6088,
      "mikisa": 6089,
      "compassion": 6090,
      "infectious": 6091,
      "kebwa": 6092,
      "fusion": 6093,
      "anohyeto": 6094,
      "wɔbɛhwɛ": 6095,
      "istent": 6096,
      "marke": 6097,
      "athari": 6098,
      "involving": 6099,
      "mulala": 6100,
      "recurrent": 6101,
      "greatest": 6102,
      "chimpanzees": 6103,
      "Shar": 6104,
      "UN": 6105,
      "hid": 6106,
      "kitu": 6107,
      "mand": 6108,
      "nina": 6109,
      "sho": 6110,
      "sindano": 6111,
      "kule": 6112,
      "agree": 6113,
      "afiri": 6114,
      "irika": 6115,
      "exchange": 6116,
      "gives": 6117,
      "ekit": 6118,
      "production": 6119,
      "ebibuuzo": 6120,
      "interests": 6121,
      "Okubeera": 6122,
      "Okukozesa": 6123,
      "akapiira": 6124,
      "Youth": 6125,
      "eziwerako": 6126,
      "addressed": 6127,
      "essions": 6128,
      "cks": 6129,
      "misinformation": 6130,
      "stigmati": 6131,
      "critically": 6132,
      "kakkanya": 6133,
      "Transmission": 6134,
      "Primar": 6135,
      "hospital": 6136,
      "Yiw": 6137,
      "nhyehyeɛ": 6138,
      "okulambikibwa": 6139,
      "Cha": 6140,
      "Nedda": 6141,
      "Nnipa": 6142,
      "fɛ": 6143,
      "fit": 6144,
      "ov": 6145,
      "ሰብ": 6146,
      "ዓይ": 6147,
      "ይጠ": 6148,
      "engo": 6149,
      "maa": 6150,
      "wait": 6151,
      "kakati": 6152,
      "itamu": 6153,
      "akon": 6154,
      "adminis": 6155,
      "taarifa": 6156,
      "trouble": 6157,
      "duyiro": 6158,
      "nkasa": 6159,
      "cyano": 6160,
      "groin": 6161,
      "orry": 6162,
      "lining": 6163,
      "Kuzuia": 6164,
      "Not": 6165,
      "Consul": 6166,
      "nnwumakuo": 6167,
      "polo": 6168,
      "Exam": 6169,
      "በሽታዎች": 6170,
      "swings": 6171,
      "kufuata": 6172,
      "Advocacy": 6173,
      "jinsia": 6174,
      "madhara": 6175,
      "Atipɛnfo": 6176,
      "Pers": 6177,
      "ogen": 6178,
      "pata": 6179,
      "ut": 6180,
      "zisobola": 6181,
      "ይቻ": 6182,
      "kusaasa": 6183,
      "kuendelea": 6184,
      "ises": 6185,
      "contam": 6186,
      "kio": 6187,
      "kihisia": 6188,
      "teree": 6189,
      "saving": 6190,
      "desires": 6191,
      "cord": 6192,
      "wɔrehwehwɛ": 6193,
      "aliikirivu": 6194,
      "jjanjabiddwa": 6195,
      "ትሪኮሞኒ": 6196,
      "(‘": 6197,
      "eating": 6198,
      "equi": 6199,
      "hasa": 6200,
      "lly": 6201,
      "oint": 6202,
      "utambuzi": 6203,
      "ሎት": 6204,
      "anom": 6205,
      "erako": 6206,
      "kut": 6207,
      "maendeleo": 6208,
      "arma": 6209,
      "siku": 6210,
      "noticed": 6211,
      "caregi": 6212,
      "nnaku": 6213,
      "pharma": 6214,
      "Ingawa": 6215,
      "anyan": 6216,
      "butto": 6217,
      "ebiwundu": 6218,
      "kutokea": 6219,
      "wobɛka": 6220,
      "cording": 6221,
      "According": 6222,
      "warts": 6223,
      "Therapy": 6224,
      "Sharing": 6225,
      "Ase": 6226,
      "Da": 6227,
      "Ri": 6228,
      "aid": 6229,
      "bate": 6230,
      "ɛbɔ": 6231,
      "inant": 6232,
      "titi": 6233,
      "timing": 6234,
      "wɔahwɛ": 6235,
      "duce": 6236,
      "wansi": 6237,
      "alitis": 6238,
      "phalitis": 6239,
      "isibwa": 6240,
      "emitendera": 6241,
      "amanaman": 6242,
      "okukuba": 6243,
      "ndani": 6244,
      "kakra": 6245,
      "nkrataa": 6246,
      "responsibilities": 6247,
      "ካንሰ": 6248,
      "Lear": 6249,
      "Mo": 6250,
      "ajja": 6251,
      "dɛ": 6252,
      "gor": 6253,
      "nhoma": 6254,
      "nnyingi": 6255,
      "ration": 6256,
      "uyisa": 6257,
      "yenna": 6258,
      "መው": 6259,
      "መከላከያ": 6260,
      "required": 6261,
      "wabula": 6262,
      "buyinza": 6263,
      "dec": 6264,
      "tebwa": 6265,
      "bimu": 6266,
      "testes": 6267,
      "vaako": 6268,
      "ocal": 6269,
      "gattira": 6270,
      "kwen": 6271,
      "finally": 6272,
      "managed": 6273,
      "faced": 6274,
      "pɛpɛɛ": 6275,
      "Sɛnea": 6276,
      "newborn": 6277,
      "noticeable": 6278,
      "nteteeɛ": 6279,
      "prompt": 6280,
      "abdomen": 6281,
      "World": 6282,
      "onococ": 6283,
      "okwenyigira": 6284,
      "fatigue": 6285,
      "All": 6286,
      "Creating": 6287,
      "Osobola": 6288,
      "Wu": 6289,
      "ሙያ": 6290,
      "ancient": 6291,
      "enjo": 6292,
      "kyali": 6293,
      "exper": 6294,
      "mptom": 6295,
      "money": 6296,
      "dominant": 6297,
      "wɔbɛbɔ": 6298,
      "protections": 6299,
      "ongoosa": 6300,
      "isode": 6301,
      "ከላከላ": 6302,
      "episode": 6303,
      "referrals": 6304,
      "visit": 6305,
      "coverage": 6306,
      "bado": 6307,
      "okugabana": 6308,
      "wɔbɛkamfo": 6309,
      "frequent": 6310,
      "ekisawo": 6311,
      "ይቻላል": 6312,
      "',": 6313,
      "Awa": 6314,
      "Apɔ": 6315,
      "Engeri": 6316,
      "blue": 6317,
      "jour": 6318,
      "winna": 6319,
      "ሌሎች": 6320,
      "ሲስ": 6321,
      "በባ": 6322,
      "ፒቪ": 6323,
      "anza": 6324,
      "anidde": 6325,
      "anansesɛm": 6326,
      "wɔabu": 6327,
      "tuu": 6328,
      "soɔ": 6329,
      "wosi": 6330,
      "zigo": 6331,
      "mos": 6332,
      "koo": 6333,
      "extreme": 6334,
      "parities": 6335,
      "akalwaza": 6336,
      "fua": 6337,
      "dawu": 6338,
      "encephalitis": 6339,
      "ebisinga": 6340,
      "affecting": 6341,
      "balanced": 6342,
      "mmeaeɛ": 6343,
      "increases": 6344,
      "objects": 6345,
      "kusalawo": 6346,
      "198": 6347,
      "reason": 6348,
      "class": 6349,
      "መንገድ": 6350,
      "guardi": 6351,
      "40": 6352,
      "Ayares": 6353,
      "Mpɛn": 6354,
      "Sɛn": 6355,
      "Ur": 6356,
      "bring": 6357,
      "ባቢ": 6358,
      "ቤተ": 6359,
      "ብኝ": 6360,
      "anu": 6361,
      "ones": 6362,
      "remed": 6363,
      "seli": 6364,
      "size": 6365,
      "implications": 6366,
      "gizi": 6367,
      "perceptions": 6368,
      "regul": 6369,
      "Reproductive": 6370,
      "kateeka": 6371,
      "akul": 6372,
      "Resources": 6373,
      "ለመከላከል": 6374,
      "smelly": 6375,
      "realistic": 6376,
      "kuelewa": 6377,
      "instructions": 6378,
      "Primary": 6379,
      "Dif": 6380,
      "DNA": 6381,
      "Pen": 6382,
      "mira": 6383,
      "ላሉ": 6384,
      "isol": 6385,
      "wɔahu": 6386,
      "nex": 6387,
      "entee": 6388,
      "soap": 6389,
      "hayo": 6390,
      "obumu": 6391,
      "moder": 6392,
      "gia": 6393,
      "Incre": 6394,
      "grunting": 6395,
      "zote": 6396,
      "helplines": 6397,
      "Hotlines": 6398,
      "staff": 6399,
      "unguzwa": 6400,
      "usual": 6401,
      "brɛ": 6402,
      "afotufoɔ": 6403,
      "identified": 6404,
      "kushauri": 6405,
      "2020": 6406,
      "watery": 6407,
      "aduruyɛ": 6408,
      "mindfulness": 6409,
      "eritta": 6410,
      "nature": 6411,
      "travels": 6412,
      "Discuss": 6413,
      "Blisters": 6414,
      "cyanosis": 6415,
      "Za": 6416,
      "oo": 6417,
      "ያለው": 6418,
      "ይከላከላ": 6419,
      "enkan": 6420,
      "isting": 6421,
      "itch": 6422,
      "suahunu": 6423,
      "haya": 6424,
      "conduc": 6425,
      "symptom": 6426,
      "ending": 6427,
      "gika": 6428,
      "carefully": 6429,
      "grams": 6430,
      "educate": 6431,
      "labirira": 6432,
      "growing": 6433,
      "infant": 6434,
      "telling": 6435,
      "okusoomoozebwa": 6436,
      "suscepti": 6437,
      "pleasure": 6438,
      "Services": 6439,
      "Individuals": 6440,
      "boolebwa": 6441,
      "Confidential": 6442,
      "Blo": 6443,
      "Nyinsɛn": 6444,
      "Una": 6445,
      "bingi": 6446,
      "dri": 6447,
      "enga": 6448,
      "asing": 6449,
      "name": 6450,
      "abnormal": 6451,
      "bikulu": 6452,
      "omukugu": 6453,
      "byobulamu": 6454,
      "abaami": 6455,
      "vuba": 6456,
      "sampolo": 6457,
      "tiaa": 6458,
      "okukende": 6459,
      "Provide": 6460,
      "spinal": 6461,
      "damaged": 6462,
      "okusiigibwa": 6463,
      "current": 6464,
      "tters": 6465,
      "release": 6466,
      "documents": 6467,
      "habits": 6468,
      "Positive": 6469,
      "threatening": 6470,
      "panyin": 6471,
      "relaxation": 6472,
      "08002020": 6473,
      "Preventing": 6474,
      "konvuba": 6475,
      "0800202010": 6476,
      "Awo": 6477,
      "Emo": 6478,
      "Listen": 6479,
      "Us": 6480,
      "zes": 6481,
      "ɔde": 6482,
      "ችሉ": 6483,
      "ችግ": 6484,
      "እድ": 6485,
      "ያደር": 6486,
      "mazzi": 6487,
      "okujjukira": 6488,
      "fertili": 6489,
      "kweli": 6490,
      "ungua": 6491,
      "juu": 6492,
      "jumu": 6493,
      "ebiragiro": 6494,
      "Medic": 6495,
      "okutuu": 6496,
      "enzijanjaba": 6497,
      "timately": 6498,
      "standard": 6499,
      "designed": 6500,
      "million": 6501,
      "Wubetumi": 6502,
      "Awareness": 6503,
      "Fi": 6504,
      "Pain": 6505,
      "Swab": 6506,
      "band": 6507,
      "mwan": 6508,
      "nko": 6509,
      "ues": 6510,
      "ሮች": 6511,
      "ፈላ": 6512,
      "tizo": 6513,
      "amanyiddwa": 6514,
      "sures": 6515,
      "comprom": 6516,
      "disparities": 6517,
      "gyo": 6518,
      "account": 6519,
      "marry": 6520,
      "walibwa": 6521,
      "problem": 6522,
      "brayɛ": 6523,
      "chukuliwa": 6524,
      "confirmed": 6525,
      "requirements": 6526,
      "asoɛe": 6527,
      "disorders": 6528,
      "hidden": 6529,
      "kushauriana": 6530,
      "Mon": 6531,
      "Rese": 6532,
      "Sw": 6533,
      "Zino": 6534,
      "ayo": 6535,
      "kono": 6536,
      "ላዊ": 6537,
      "ኛው": 6538,
      "የግብረ": 6539,
      "inah": 6540,
      "ishe": 6541,
      "busannyalaze": 6542,
      "kamfo": 6543,
      "dead": 6544,
      "ological": 6545,
      "okukwatagana": 6546,
      "liza": 6547,
      "unders": 6548,
      "mikwano": 6549,
      "worth": 6550,
      "Okus": 6551,
      "wobɛhwehwɛ": 6552,
      "kyama": 6553,
      "quito": 6554,
      "burn": 6555,
      "gerako": 6556,
      "refers": 6557,
      "kyɛfa": 6558,
      "Share": 6559,
      "entered": 6560,
      "conflicts": 6561,
      "አደጋ": 6562,
      "Understanding": 6563,
      "Kup": 6564,
      "bri": 6565,
      "mɛyɛ": 6566,
      "sad": 6567,
      "siriimu": 6568,
      "writ": 6569,
      "ርት": 6570,
      "ሰራ": 6571,
      "kud": 6572,
      "toto": 6573,
      "wear": 6574,
      "wohyia": 6575,
      "lyo": 6576,
      "lihood": 6577,
      "pap": 6578,
      "odyo": 6579,
      "Chall": 6580,
      "regim": 6581,
      "country": 6582,
      "samples": 6583,
      "dwumadibea": 6584,
      "Building": 6585,
      "responsibility": 6586,
      "Engage": 6587,
      "confirm": 6588,
      "disclose": 6589,
      "Getting": 6590,
      "ባለሙያ": 6591,
      "successful": 6592,
      "obuwagizi": 6593,
      "grey": 6594,
      "alternative": 6595,
      "fallopian": 6596,
      "decrease": 6597,
      "ከባድ": 6598,
      "ካንሰር": 6599,
      "Awofo": 6600,
      "easy": 6601,
      "him": 6602,
      "kodyo": 6603,
      "lung": 6604,
      "owulira": 6605,
      "sessions": 6606,
      "ራት": 6607,
      "reinfor": 6608,
      "mashirika": 6609,
      "agi": 6610,
      "complic": 6611,
      "Kuj": 6612,
      "concerned": 6613,
      "collecting": 6614,
      "mmeranteɛ": 6615,
      "adwenemyareɛ": 6616,
      "recognized": 6617,
      "clar": 6618,
      "greatly": 6619,
      "ebitongole": 6620,
      "akannifo": 6621,
      "Risk": 6622,
      "contaminated": 6623,
      "Rights": 6624,
      "Zaidi": 6625,
      "ፈላጊ": 6626,
      "Nanso": 6627,
      "ɛhia": 6628,
      "ዶች": 6629,
      "tite": 6630,
      "remove": 6631,
      "butuufu": 6632,
      "omer": 6633,
      "cancers": 6634,
      "cele": 6635,
      "mmoawa": 6636,
      "organi": 6637,
      "safely": 6638,
      "appetite": 6639,
      "haping": 6640,
      "teekawo": 6641,
      "rubɔ": 6642,
      "husband": 6643,
      "population": 6644,
      "akyerɛkyerɛfoɔ": 6645,
      "targe": 6646,
      "competen": 6647,
      "empeke": 6648,
      "perpetu": 6649,
      "ketewa": 6650,
      "tereevu": 6651,
      "caregivers": 6652,
      "enteekateeka": 6653,
      "5100": 6654,
      "Ank": 6655,
      "Op": 6656,
      "Oral": 6657,
      "SE": 6658,
      "Take": 6659,
      "las": 6660,
      "njawulo": 6661,
      "slow": 6662,
      "zungu": 6663,
      "inda": 6664,
      "onsa": 6665,
      "eso": 6666,
      "andika": 6667,
      "wɔatumi": 6668,
      "ilia": 6669,
      "usahihi": 6670,
      "prevents": 6671,
      "distr": 6672,
      "aliwa": 6673,
      "changing": 6674,
      "akamwa": 6675,
      "differences": 6676,
      "therap": 6677,
      "complete": 6678,
      "gyidie": 6679,
      "since": 6680,
      "አስፈላጊ": 6681,
      "mbinu": 6682,
      "upatikanaji": 6683,
      "ዝና": 6684,
      "ፀረ": 6685,
      "anye": 6686,
      "inka": 6687,
      "inst": 6688,
      "kuno": 6689,
      "toolo": 6690,
      "wɔdi": 6691,
      "okutandika": 6692,
      "light": 6693,
      "lunaku": 6694,
      "meyɛ": 6695,
      "pay": 6696,
      "ahokafo": 6697,
      "ebbanga": 6698,
      "akwantu": 6699,
      "overcome": 6700,
      "linda": 6701,
      "empisa": 6702,
      "ebyo": 6703,
      "woowo": 6704,
      "analy": 6705,
      "asuafoɔ": 6706,
      "rashes": 6707,
      "document": 6708,
      "Offering": 6709,
      "manifest": 6710,
      "intimate": 6711,
      "ddoozi": 6712,
      "strugg": 6713,
      "ከፍተኛ": 6714,
      "AD": 6715,
      "Ul": 6716,
      "ape": 6717,
      "cted": 6718,
      "kina": 6719,
      "ww": 6720,
      "ነቱ": 6721,
      "ጋል": 6722,
      "mata": 6723,
      "ables": 6724,
      "ofuna": 6725,
      "taalamu": 6726,
      "imize": 6727,
      "teen": 6728,
      "probab": 6729,
      "agava": 6730,
      "obukyala": 6731,
      "tertiary": 6732,
      "gemea": 6733,
      "gaza": 6734,
      "kyonna": 6735,
      "aller": 6736,
      "inclusion": 6737,
      "esigika": 6738,
      "Address": 6739,
      "saayansi": 6740,
      "differently": 6741,
      "improving": 6742,
      "obutaba": 6743,
      "Tiba": 6744,
      "urogenital": 6745,
      "ezitateeka": 6746,
      "okwanganga": 6747,
      "haraka": 6748,
      "histor": 6749,
      "nyiyimu": 6750,
      "enhance": 6751,
      "titire": 6752,
      "Blood": 6753,
      "BP": 6754,
      "Skin": 6755,
      "eweweeza": 6756,
      "umi": 6757,
      "ɛsom": 6758,
      "ያሉ": 6759,
      "wosusuw": 6760,
      "badi": 6761,
      "dumu": 6762,
      "metronidazole": 6763,
      "exist": 6764,
      "treating": 6765,
      "nnwinna": 6766,
      "gyinaeɛ": 6767,
      "Viral": 6768,
      "ficial": 6769,
      "Encouraging": 6770,
      "promotes": 6771,
      "Kae": 6772,
      "okusomesa": 6773,
      "አደገኛ": 6774,
      "Grou": 6775,
      "conjun": 6776,
      "NGOs": 6777,
      "Emotional": 6778,
      "Research": 6779,
      "Swollen": 6780,
      "Fr": 6781,
      "Nhwɛ": 6782,
      "overy": 6783,
      "upimaji": 6784,
      "ቤት": 6785,
      "ክክ": 6786,
      "ፊት": 6787,
      "kubeera": 6788,
      "kufuna": 6789,
      "bud": 6790,
      "amb": 6791,
      "becoming": 6792,
      "idh": 6793,
      "ids": 6794,
      "yem": 6795,
      "although": 6796,
      "afuna": 6797,
      "obutal": 6798,
      "mikakati": 6799,
      "alimu": 6800,
      "chance": 6801,
      "Genesis": 6802,
      "umri": 6803,
      "sigala": 6804,
      "improved": 6805,
      "subject": 6806,
      "participating": 6807,
      "evaluate": 6808,
      "kudhibitiwa": 6809,
      "location": 6810,
      "Collaborating": 6811,
      "invest": 6812,
      "vulnerable": 6813,
      "እርግዝና": 6814,
      "Dise": 6815,
      "Gye": 6816,
      "Mm": 6817,
      "iti": 6818,
      "mme": 6819,
      "mali": 6820,
      "ንም": 6821,
      "onal": 6822,
      "kukeberebwa": 6823,
      "marefu": 6824,
      "maamuzi": 6825,
      "wɔda": 6826,
      "simu": 6827,
      "heals": 6828,
      "akenkan": 6829,
      "acts": 6830,
      "zao": 6831,
      "resol": 6832,
      "expen": 6833,
      "asiesie": 6834,
      "weebwa": 6835,
      "ayam": 6836,
      "manyiddwa": 6837,
      "ለመደ": 6838,
      "shown": 6839,
      "Menstr": 6840,
      "entering": 6841,
      "Priv": 6842,
      "obweraliikirivu": 6843,
      "meet": 6844,
      "gyinabea": 6845,
      "Ahyehyɛ": 6846,
      "Cer": 6847,
      "Dawa": 6848,
      "KOVID": 6849,
      "Ter": 6850,
      "equal": 6851,
      "fatal": 6852,
      "ታል": 6853,
      "ታማ": 6854,
      "ጠብ": 6855,
      "esua": 6856,
      "kusi": 6857,
      "atee": 6858,
      "tolo": 6859,
      "kakasa": 6860,
      "formation": 6861,
      "tebu": 6862,
      "ulinzi": 6863,
      "omukwano": 6864,
      "ify": 6865,
      "nkomer": 6866,
      "transport": 6867,
      "wɔbɛnya": 6868,
      "wɔbɛhyehyɛ": 6869,
      "nnya": 6870,
      "Okugatta": 6871,
      "linked": 6872,
      "approved": 6873,
      "unguzi": 6874,
      "crim": 6875,
      "Expl": 6876,
      "Protec": 6877,
      "issue": 6878,
      "kiririza": 6879,
      "examine": 6880,
      "priorities": 6881,
      "acceptable": 6882,
      "didy": 6883,
      "starting": 6884,
      "መድኃኒት": 6885,
      "Contracep": 6886,
      "ፈሳሽ": 6887,
      "classified": 6888,
      "Increased": 6889,
      "Che": 6890,
      "Pap": 6891,
      "ctivitis": 6892,
      "mrefu": 6893,
      "osing": 6894,
      "pow": 6895,
      "wingi": 6896,
      "alira": 6897,
      "enkulu": 6898,
      "atinka": 6899,
      "iridde": 6900,
      "seiz": 6901,
      "aren": 6902,
      "died": 6903,
      "sight": 6904,
      "princ": 6905,
      "withdra": 6906,
      "msa": 6907,
      "shed": 6908,
      "accoun": 6909,
      "vical": 6910,
      "nnim": 6911,
      "amanne": 6912,
      "Kupima": 6913,
      "wenzi": 6914,
      "kirirwa": 6915,
      "ahyeɛ": 6916,
      "looks": 6917,
      "started": 6918,
      "ይህም": 6919,
      "implementation": 6920,
      "weaken": 6921,
      "ɔbaa": 6922,
      "strictures": 6923,
      "complicated": 6924,
      "BPG": 6925,
      "conjunctivitis": 6926,
      "seizures": 6927,
      "princi": 6928,
      ")•": 6929,
      "Gender": 6930,
      "mdom": 6931,
      "rough": 6932,
      "uke": 6933,
      "ɛmma": 6934,
      "መሪያ": 6935,
      "ቀን": 6936,
      "ድር": 6937,
      "ጠበቀ": 6938,
      "inse": 6939,
      "enkasa": 6940,
      "buta": 6941,
      "belong": 6942,
      "obuvunaanyizibwa": 6943,
      "foods": 6944,
      "manner": 6945,
      "entirely": 6946,
      "beae": 6947,
      "Obusannyalaze": 6948,
      "unapaswa": 6949,
      "develops": 6950,
      "orities": 6951,
      "tells": 6952,
      "material": 6953,
      "assert": 6954,
      "obuweereza": 6955,
      "technology": 6956,
      "IUDs": 6957,
      "nnyinaso": 6958,
      "ሽንት": 6959,
      "1980": 6960,
      "79": 6961,
      "Bin": 6962,
      "Hatua": 6963,
      "Phy": 6964,
      "Susuw": 6965,
      "gland": 6966,
      "nsɛnkyerɛnne": 6967,
      "shaping": 6968,
      "vom": 6969,
      "retur": 6970,
      "arily": 6971,
      "ament": 6972,
      "biases": 6973,
      "afuta": 6974,
      "predominant": 6975,
      "mewɔ": 6976,
      "mmra": 6977,
      "plans": 6978,
      "nhyehyɛeyɛfo": 6979,
      "ebivudde": 6980,
      "protecting": 6981,
      "Omusawo": 6982,
      "እንደሚ": 6983,
      "liniki": 6984,
      "ታከም": 6985,
      "ደረጃ": 6986,
      "ejaculation": 6987,
      "okukyusa": 6988,
      "okubudaabudibwa": 6989,
      "equip": 6990,
      "Ankorankoro": 6991,
      "Physi": 6992,
      "Anim": 6993,
      "Bir": 6994,
      "Bisa": 6995,
      "okozesa": 6996,
      "Ɔbarima": 6997,
      "tile": 6998,
      "busin": 6999,
      "sem": 7000,
      "sideɛ": 7001,
      "siesie": 7002,
      "suala": 7003,
      "lies": 7004,
      "agents": 7005,
      "eep": 7006,
      "kevu": 7007,
      "nyans": 7008,
      "incor": 7009,
      "anyulo": 7010,
      "ingawa": 7011,
      "empuliziganya": 7012,
      "herbal": 7013,
      "concern": 7014,
      "ished": 7015,
      "yambako": 7016,
      "Untreated": 7017,
      "epuka": 7018,
      "ennee": 7019,
      "Tie": 7020,
      "Look": 7021,
      "Bio": 7022,
      "Organizations": 7023,
      "hesit": 7024,
      "facilitate": 7025,
      "kunyonyesha": 7026,
      "Choose": 7027,
      "extremely": 7028,
      "remedies": 7029,
      "akulana": 7030,
      "KOVIDI": 7031,
      "business": 7032,
      "%.": 7033,
      "Fin": 7034,
      "Lack": 7035,
      "Nte": 7036,
      "Nnyin": 7037,
      "huru": 7038,
      "sesa": 7039,
      "zako": 7040,
      "ረጋ": 7041,
      "anony": 7042,
      "force": 7043,
      "anaye": 7044,
      "bɛboa": 7045,
      "infect": 7046,
      "amabeere": 7047,
      "okwet": 7048,
      "ambukiza": 7049,
      "absence": 7050,
      "emikwano": 7051,
      "obwagazi": 7052,
      "ewava": 7053,
      "PPAG": 7054,
      "climate": 7055,
      "frameworks": 7056,
      "pɛpɛɛpɛ": 7057,
      "Confidentiality": 7058,
      "':": 7059,
      "130": 7060,
      "Gal": 7061,
      "Iwapo": 7062,
      "Uro": 7063,
      "obeera": 7064,
      "rates": 7065,
      "sched": 7066,
      "tonna": 7067,
      "ɔpɛ": 7068,
      "መታ": 7069,
      "ቢያ": 7070,
      "ክቴ": 7071,
      "adver": 7072,
      "okukolebwa": 7073,
      "wim": 7074,
      "users": 7075,
      "chunguzi": 7076,
      "zimu": 7077,
      "ury": 7078,
      "hata": 7079,
      "escape": 7080,
      "bungi": 7081,
      "aniwu": 7082,
      "ebin": 7083,
      "bert": 7084,
      "changia": 7085,
      "atilia": 7086,
      "kyamu": 7087,
      "Yourself": 7088,
      "aborɔfo": 7089,
      "Albert": 7090,
      "Neisser": 7091,
      "ogusooka": 7092,
      "1879": 7093,
      "Without": 7094,
      "views": 7095,
      "መድሃኒቶች": 7096,
      "ብዙውን": 7097,
      "collaboration": 7098,
      "influenced": 7099,
      "zinazofaa": 7100,
      "ወቅት": 7101,
      "characteristic": 7102,
      "kubirizibwa": 7103,
      "broader": 7104,
      "PCR": 7105,
      "Birth": 7106,
      "Galen": 7107,
      "Urogenital": 7108,
      "Ak": 7109,
      "Pu": 7110,
      "Tin": 7111,
      "ctional": 7112,
      "gundu": 7113,
      "rhea": 7114,
      "utes": 7115,
      "wandi": 7116,
      "አብ": 7117,
      "tired": 7118,
      "wame": 7119,
      "abisa": 7120,
      "amps": 7121,
      "suitable": 7122,
      "woma": 7123,
      "imiridde": 7124,
      "construc": 7125,
      "mpɛn": 7126,
      "kizo": 7127,
      "hivi": 7128,
      "eriziyiza": 7129,
      "vaamu": 7130,
      "recur": 7131,
      "edie": 7132,
      "minutes": 7133,
      "cept": 7134,
      "response": 7135,
      "kyekyɛ": 7136,
      "nkɔmmɔdie": 7137,
      "description": 7138,
      "study": 7139,
      "maternal": 7140,
      "buuze": 7141,
      "Should": 7142,
      "specimens": 7143,
      "shughulikia": 7144,
      "benkevu": 7145,
      "ondoola": 7146,
      "omooza": 7147,
      "ካልታከመ": 7148,
      "eliminate": 7149,
      "specialize": 7150,
      "omulala": 7151,
      "Roman": 7152,
      "Partner": 7153,
      "wonyezebwa": 7154,
      "unyanyapaa": 7155,
      "Emergen": 7156,
      "ovulation": 7157,
      "anonym": 7158,
      ",”": 7159,
      "Law": 7160,
      "Reduc": 7161,
      "sɔ": 7162,
      "ዚህ": 7163,
      "ገረ": 7164,
      "makubwa": 7165,
      "nar": 7166,
      "acity": 7167,
      "okuyi": 7168,
      "suf": 7169,
      "stories": 7170,
      "gumi": 7171,
      "engaged": 7172,
      "feet": 7173,
      "zui": 7174,
      "kutoo": 7175,
      "kutokana": 7176,
      "nkuranhyɛ": 7177,
      "harura": 7178,
      "balance": 7179,
      "taago": 7180,
      "obutaffaali": 7181,
      "Often": 7182,
      "aliyeambukizwa": 7183,
      "ezitali": 7184,
      "zuulibwamu": 7185,
      "watoa": 7186,
      "okunywerera": 7187,
      "akannifoɔ": 7188,
      "difficulty": 7189,
      "papillomavirus": 7190,
      "Disease": 7191,
      "Physical": 7192,
      "ክቴሪያ": 7193,
      "Abɛ": 7194,
      "Mi": 7195,
      "Nsusu": 7196,
      "beri": 7197,
      "ners": 7198,
      "kuyita": 7199,
      "kulinda": 7200,
      "isɛ": 7201,
      "maze": 7202,
      "wɔbom": 7203,
      "arm": 7204,
      "shwa": 7205,
      "efisɛ": 7206,
      "okwekenne": 7207,
      "uamu": 7208,
      "chanjo": 7209,
      "kuridh": 7210,
      "cultures": 7211,
      "herbs": 7212,
      "binja": 7213,
      "Testament": 7214,
      "Sikasɛm": 7215,
      "ይረዳ": 7216,
      "mpanyin": 7217,
      "respected": 7218,
      "Tiberi": 7219,
      "models": 7220,
      "Newborns": 7221,
      "kidney": 7222,
      "kosebwa": 7223,
      "victims": 7224,
      "protozoan": 7225,
      "next": 7226,
      "jumuisha": 7227,
      "kuridhisha": 7228,
      "Tiberius": 7229,
      "CSE": 7230,
      "Gu": 7231,
      "Mas": 7232,
      "Rome": 7233,
      "duni": 7234,
      "gono": 7235,
      "hp": 7236,
      "lar": 7237,
      "nkutoo": 7238,
      "እው": 7239,
      "ወስ": 7240,
      "onam": 7241,
      "kushughulikia": 7242,
      "isho": 7243,
      "bukola": 7244,
      "wɔan": 7245,
      "divid": 7246,
      "okubiri": 7247,
      "okumany": 7248,
      "teek": 7249,
      "obukuumi": 7250,
      "hiyo": 7251,
      "vitic": 7252,
      "hudumu": 7253,
      "emirimu": 7254,
      "ebibiina": 7255,
      "atie": 7256,
      "involuntary": 7257,
      "Jews": 7258,
      "platform": 7259,
      "ጤናማ": 7260,
      "Levitic": 7261,
      "weraliikiriza": 7262,
      "Abasa": 7263,
      "ananmusi": 7264,
      "manifests": 7265,
      "Romans": 7266,
      "blindness": 7267,
      "derives": 7268,
      "portrayals": 7269,
      "Arabs": 7270,
      "dawurubɔ": 7271,
      "Ultimately": 7272,
      "Leviticus": 7273,
      "cally": 7274,
      "dduyiro": 7275,
      "eties": 7276,
      "kr": 7277,
      "mbuka": 7278,
      "solu": 7279,
      "xone": 7280,
      "anzi": 7281,
      "angibwa": 7282,
      "kuathiri": 7283,
      "asking": 7284,
      "wɔkasa": 7285,
      "weesiga": 7286,
      "tria": 7287,
      "proven": 7288,
      "produce": 7289,
      "afoforɔ": 7290,
      "gather": 7291,
      "urinary": 7292,
      "auty": 7293,
      "shar": 7294,
      "Obujjanjabi": 7295,
      "Reli": 7296,
      "consensu": 7297,
      "Uncomplicated": 7298,
      "adequate": 7299,
      "preferred": 7300,
      "student": 7301,
      "Dwumadi": 7302,
      "recognizing": 7303,
      "ababeezi": 7304,
      "teachers": 7305,
      "Rectal": 7306,
      "offers": 7307,
      "starts": 7308,
      "eggs": 7309,
      "guaran": 7310,
      "sustain": 7311,
      "Kozesa": 7312,
      "telehealth": 7313,
      "okulumwa": 7314,
      "UTI": 7315,
      "ሊያስከትል": 7316,
      "enjoy": 7317,
      "mosquito": 7318,
      "guardians": 7319,
      "Emergency": 7320,
      "triaxone": 7321,
      "Asi": 7322,
      "Amp": 7323,
      "Bɔ": 7324,
      "xicillin": 7325,
      "yangu": 7326,
      "ላቸው": 7327,
      "ያዝ": 7328,
      "esom": 7329,
      "kukozesa": 7330,
      "kuenea": 7331,
      "abstinence": 7332,
      "beauty": 7333,
      "older": 7334,
      "acne": 7335,
      "okulumi": 7336,
      "wunya": 7337,
      "imbu": 7338,
      "concent": 7339,
      "migr": 7340,
      "law": 7341,
      "gua": 7342,
      "month": 7343,
      "Chronic": 7344,
      "wɔbɛkyɛ": 7345,
      "kind": 7346,
      "stead": 7347,
      "Therefore": 7348,
      "Nipadua": 7349,
      "consulting": 7350,
      "trigg": 7351,
      "emergencies": 7352,
      "visits": 7353,
      "kubaawo": 7354,
      "toward": 7355,
      "Recogni": 7356,
      "mentorship": 7357,
      "Stay": 7358,
      "susceptible": 7359,
      "lungs": 7360,
      "hpv": 7361,
      "okulumizibwa": 7362,
      "Colu": 7363,
      "Est": 7364,
      "Others": 7365,
      "Sec": 7366,
      "Taking": 7367,
      "Upimaji": 7368,
      "Wash": 7369,
      "gano": 7370,
      "ganyulo": 7371,
      "mkubwa": 7372,
      "nan": 7373,
      "oso": 7374,
      "rom": 7375,
      "scal": 7376,
      "zili": 7377,
      "ረጅ": 7378,
      "ዎን": 7379,
      "thor": 7380,
      "reinfected": 7381,
      "matu": 7382,
      "wɔpaw": 7383,
      "okusu": 7384,
      "okuviirako": 7385,
      "omutwe": 7386,
      "omutendera": 7387,
      "fahamu": 7388,
      "huna": 7389,
      "tissue": 7390,
      "onotono": 7391,
      "helping": 7392,
      "banned": 7393,
      "credi": 7394,
      "nneeyisa": 7395,
      "wobɛte": 7396,
      "okukkiriza": 7397,
      "okukolagana": 7398,
      "socio": 7399,
      "okulwanyisa": 7400,
      "nsusui": 7401,
      "2025": 7402,
      "okuddamu": 7403,
      "Parents": 7404,
      "empowering": 7405,
      "allows": 7406,
      "expressing": 7407,
      "disclosure": 7408,
      "strength": 7409,
      "characterized": 7410,
      "chaguo": 7411,
      "authorities": 7412,
      "ምክንያት": 7413,
      "Establish": 7414,
      "Join": 7415,
      "Nor": 7416,
      "bili": 7417,
      "fofa": 7418,
      "kendeeza": 7419,
      "nku": 7420,
      "nkyerɛ": 7421,
      "ልብ": 7422,
      "ጀመሪያ": 7423,
      "ገና": 7424,
      "eror": 7425,
      "kuso": 7426,
      "kundi": 7427,
      "beerera": 7428,
      "baabwe": 7429,
      "wɛn": 7430,
      "boy": 7431,
      "ekitundu": 7432,
      "suppress": 7433,
      "tensi": 7434,
      "fetu": 7435,
      "okweyongera": 7436,
      "wore": 7437,
      "illas": 7438,
      "singi": 7439,
      "bloodstream": 7440,
      "Ensu": 7441,
      "Nokwa": 7442,
      "kyekye": 7443,
      "plants": 7444,
      "kukusaidia": 7445,
      "kukumbuka": 7446,
      "laboratory": 7447,
      "Emperor": 7448,
      "ushiriki": 7449,
      "okunaaba": 7450,
      "Baada": 7451,
      "adamfofa": 7452,
      "gorillas": 7453,
      "onococcal": 7454,
      "principles": 7455,
      "equipment": 7456,
      "Abɛɛfo": 7457,
      "thorough": 7458,
      "App": 7459,
      "Body": 7460,
      "Gonorrhoea": 7461,
      "Salama": 7462,
      "Yog": 7463,
      "ema": 7464,
      "gent": 7465,
      "ntumi": 7466,
      "nsobola": 7467,
      "pal": 7468,
      "መደ": 7469,
      "ምህ": 7470,
      "ጣጠ": 7471,
      "ጸሎት": 7472,
      "alse": 7473,
      "kumwa": 7474,
      "ism": 7475,
      "ited": 7476,
      "lection": 7477,
      "prote": 7478,
      "unte": 7479,
      "inay": 7480,
      "bɛkasa": 7481,
      "ekya": 7482,
      "versa": 7483,
      "የተጠበቀ": 7484,
      "Antigen": 7485,
      "Empower": 7486,
      "wataalamu": 7487,
      "looking": 7488,
      "indicate": 7489,
      "strengthen": 7490,
      "shape": 7491,
      "agalana": 7492,
      "micros": 7493,
      "Wakati": 7494,
      "procedure": 7495,
      "sumption": 7496,
      "Consult": 7497,
      "ይከላከላል": 7498,
      "celebr": 7499,
      "Ampli": 7500,
      "Bul": 7501,
      "Mana": 7502,
      "Treating": 7503,
      "Vag": 7504,
      "mom": 7505,
      "nketewa": 7506,
      "yokka": 7507,
      "ሊድ": 7508,
      "ልጃ": 7509,
      "መስ": 7510,
      "ታዊ": 7511,
      "አል": 7512,
      "ያሲስ": 7513,
      "mazo": 7514,
      "maele": 7515,
      "akatua": 7516,
      "noonyereza": 7517,
      "yɛfrɛ": 7518,
      "tag": 7519,
      "yet": 7520,
      "mpa": 7521,
      "unsure": 7522,
      "unsafe": 7523,
      "omusujja": 7524,
      "pelvic": 7525,
      "stor": 7526,
      "satis": 7527,
      "fube": 7528,
      "weefube": 7529,
      "societies": 7530,
      "cott": 7531,
      "systemic": 7532,
      "kɛseɛ": 7533,
      "Digital": 7534,
      "አንቲ": 7535,
      "wobehu": 7536,
      "ኢንፌክሽኖ": 7537,
      "practical": 7538,
      "handle": 7539,
      "hakika": 7540,
      "commitment": 7541,
      "equity": 7542,
      "heard": 7543,
      "fichua": 7544,
      "uwezo": 7545,
      "Privacy": 7546,
      "Nnyinza": 7547,
      "ረጅም": 7548,
      "cotton": 7549,
      "Sur": 7550,
      "blam": 7551,
      "kanyan": 7552,
      "ɔpanyin": 7553,
      "ውሃ": 7554,
      "inas": 7555,
      "onim": 7556,
      "tification": 7557,
      "kutangira": 7558,
      "wawili": 7559,
      "yaabwe": 7560,
      "lease": 7561,
      "nose": 7562,
      "zazi": 7563,
      "sɛdeɛ": 7564,
      "chi": 7565,
      "ulum": 7566,
      "bibwa": 7567,
      "ghs": 7568,
      "ends": 7569,
      "love": 7570,
      "tende": 7571,
      "akwaa": 7572,
      "isition": 7573,
      "akamu": 7574,
      "advocates": 7575,
      "awerɛ": 7576,
      "ምንድ": 7577,
      "olowooza": 7578,
      "Always": 7579,
      "ensures": 7580,
      "scar": 7581,
      "acquisition": 7582,
      "broɔfo": 7583,
      "ndogo": 7584,
      "regions": 7585,
      "Kyerɛkyerɛ": 7586,
      "Promoting": 7587,
      "ደህንነቱ": 7588,
      "ayɔnkofa": 7589,
      "Urine": 7590,
      "Differ": 7591,
      "nnwinnade": 7592,
      "incorpor": 7593,
      "characteristics": 7594,
      "??": 7595,
      "Fact": 7596,
      "Hat": 7597,
      "PR": 7598,
      "fidie": 7599,
      "kliniki": 7600,
      "nzuri": 7601,
      "sites": 7602,
      "uo": 7603,
      "yl": 7604,
      "ɛre": 7605,
      "ባህ": 7606,
      "ናት": 7607,
      "ንድ": 7608,
      "income": 7609,
      "ongeza": 7610,
      "esimbu": 7611,
      "sugu": 7612,
      "tebenkevu": 7613,
      "unusual": 7614,
      "extragenital": 7615,
      "ray": 7616,
      "okola": 7617,
      "boozi": 7618,
      "females": 7619,
      "activis": 7620,
      "helpful": 7621,
      "obulabe": 7622,
      "five": 7623,
      "Enkyukakyuka": 7624,
      "bones": 7625,
      "pending": 7626,
      "ntɛ": 7627,
      "watali": 7628,
      "pɔn": 7629,
      "varying": 7630,
      "ibuzi": 7631,
      "olojia": 7632,
      "Supporting": 7633,
      "licens": 7634,
      "beneficial": 7635,
      "endowooza": 7636,
      "Advocating": 7637,
      "dodo": 7638,
      "beegatta": 7639,
      "Hormones": 7640,
      "capacity": 7641,
      "asiiga": 7642,
      "casual": 7643,
      "restrictions": 7644,
      "Penicillin": 7645,
      "historical": 7646,
      "Hap": 7647,
      "Kiso": 7648,
      "Vis": 7649,
      "Vacc": 7650,
      "ddi": 7651,
      "hyi": 7652,
      "tans": 7653,
      "utensi": 7654,
      "ኖሩ": 7655,
      "ዋና": 7656,
      "ester": 7657,
      "estima": 7658,
      "orangu": 7659,
      "kuf": 7660,
      "makya": 7661,
      "busajja": 7662,
      "defo": 7663,
      "devices": 7664,
      "sug": 7665,
      "summa": 7666,
      "yeyote": 7667,
      "kimu": 7668,
      "obusobozi": 7669,
      "comp": 7670,
      "ope": 7671,
      "gibb": 7672,
      "raising": 7673,
      "nnam": 7674,
      "bweru": 7675,
      "kintu": 7676,
      "interpre": 7677,
      "likelihood": 7678,
      "rotum": 7679,
      "Okukola": 7680,
      "advances": 7681,
      "kozes": 7682,
      "obulwanyisa": 7683,
      "Rel": 7684,
      "calm": 7685,
      "ezimu": 7686,
      "discussion": 7687,
      "little": 7688,
      "thought": 7689,
      "Ngeri": 7690,
      "specializing": 7691,
      "Organization": 7692,
      "ይወት": 7693,
      "deadly": 7694,
      "written": 7695,
      "regimen": 7696,
      "matatizo": 7697,
      "kiririzaamu": 7698,
      "divided": 7699,
      "Hapana": 7700,
      "orangutans": 7701,
      "gibbons": 7702,
      "700": 7703,
      "Bre": 7704,
      "Dr": 7705,
      "Joint": 7706,
      "bwangu": 7707,
      "dharura": 7708,
      "fing": 7709,
      "hal": 7710,
      "kasi": 7711,
      "nkyukakyuka": 7712,
      "ግል": 7713,
      "erabantu": 7714,
      "reinfection": 7715,
      "kujjanjaba": 7716,
      "tionally": 7717,
      "yame": 7718,
      "ampo": 7719,
      "icating": 7720,
      "bey": 7721,
      "acade": 7722,
      "across": 7723,
      "adoption": 7724,
      "consumption": 7725,
      "idum": 7726,
      "kijamii": 7727,
      "compared": 7728,
      "preval": 7729,
      "omukulu": 7730,
      "omutindo": 7731,
      "via": 7732,
      "allidum": 7733,
      "abayizi": 7734,
      "kwekebeza": 7735,
      "gendererwa": 7736,
      "animals": 7737,
      "appears": 7738,
      "akɔsɛm": 7739,
      "ɔfotu": 7740,
      "Although": 7741,
      "properly": 7742,
      "seems": 7743,
      "screenings": 7744,
      "hauriwa": 7745,
      "okusiiyibwa": 7746,
      "kubadi": 7747,
      "wobebu": 7748,
      "vision": 7749,
      "representation": 7750,
      "changanyi": 7751,
      "koraa": 7752,
      "Practices": 7753,
      "voice": 7754,
      "amplification": 7755,
      "thighs": 7756,
      "tempor": 7757,
      "okulowoozaako": 7758,
      "kutibu": 7759,
      "dealing": 7760,
      "ɛsono": 7761,
      "Participating": 7762,
      "zuuliddwa": 7763,
      "Apɔw": 7764,
      "isolation": 7765,
      "reinforce": 7766,
      "hesitate": 7767,
      "academic": 7768,
      "Bacter": 7769,
      "Follow": 7770,
      "dys": 7771,
      "eyo": 7772,
      "egye": 7773,
      "mtaalamu": 7774,
      "ovaries": 7775,
      "ziddwa": 7776,
      "ባዮ": 7777,
      "ባክቴሪያ": 7778,
      "ጎዳ": 7779,
      "anad": 7780,
      "anisha": 7781,
      "onono": 7782,
      "itali": 7783,
      "nause": 7784,
      "lembe": 7785,
      "olwa": 7786,
      "okuggyamu": 7787,
      "weka": 7788,
      "wubenya": 7789,
      "unrealistic": 7790,
      "kig": 7791,
      "obuwan": 7792,
      "obutak": 7793,
      "terone": 7794,
      "sango": 7795,
      "ebyama": 7796,
      "yinom": 7797,
      "myth": 7798,
      "gesterone": 7799,
      "akura": 7800,
      "mulundi": 7801,
      "germs": 7802,
      "belie": 7803,
      "scrotum": 7804,
      "Loss": 7805,
      "okutegeeza": 7806,
      "ɛbata": 7807,
      "okukubaganya": 7808,
      "nnyinasosɛm": 7809,
      "Binadamu": 7810,
      "anonymous": 7811,
      "fetus": 7812,
      "hyial": 7813,
      "summary": 7814,
      "ampoo": 7815,
      "nausea": 7816,
      "024": 7817,
      "Boundaries": 7818,
      "Eno": 7819,
      "Keep": 7820,
      "Tre": 7821,
      "rus": 7822,
      "stis": 7823,
      "ልን": 7824,
      "በረ": 7825,
      "repr": 7826,
      "maana": 7827,
      "muka": 7828,
      "ede": 7829,
      "leg": 7830,
      "enta": 7831,
      "icated": 7832,
      "old": 7833,
      "adhere": 7834,
      "suic": 7835,
      "wohia": 7836,
      "trofo": 7837,
      "story": 7838,
      "ritis": 7839,
      "antenatal": 7840,
      "ahokyere": 7841,
      "Information": 7842,
      "persistent": 7843,
      "atika": 7844,
      "omunda": 7845,
      "feels": 7846,
      "kwetangira": 7847,
      "Kikaba": 7848,
      "እንድ": 7849,
      "wobɛkɔ": 7850,
      "burst": 7851,
      "የሚያ": 7852,
      "Acid": 7853,
      "damages": 7854,
      "tegek": 7855,
      "Educational": 7856,
      "teacher": 7857,
      "መድኃኒቶች": 7858,
      "equitable": 7859,
      "major": 7860,
      "maswali": 7861,
      "twice": 7862,
      "aminika": 7863,
      "palms": 7864,
      "ልጃገረ": 7865,
      "licensed": 7866,
      "beyond": 7867,
      "Any": 7868,
      "Gyina": 7869,
      "Kin": 7870,
      "kweraliikiriza": 7871,
      "lwatu": 7872,
      "nje": 7873,
      "nchini": 7874,
      "ስር": 7875,
      "ክፍ": 7876,
      "ይታ": 7877,
      "rela": 7878,
      "wɔagye": 7879,
      "section": 7880,
      "ark": 7881,
      "ols": 7882,
      "ils": 7883,
      "teba": 7884,
      "tekasobola": 7885,
      "hif": 7886,
      "dist": 7887,
      "nyini": 7888,
      "phone": 7889,
      "tenpɔn": 7890,
      "Head": 7891,
      "room": 7892,
      "Trust": 7893,
      "kupunguzwa": 7894,
      "chec": 7895,
      "joints": 7896,
      "የተለመደ": 7897,
      "nhwɛsoɔ": 7898,
      "obwegendereza": 7899,
      "exercises": 7900,
      "influencers": 7901,
      "explo": 7902,
      "omulundi": 7903,
      "procedures": 7904,
      "አካባቢ": 7905,
      "mdomo": 7906,
      "nyansahyɛ": 7907,
      "ባዮቲ": 7908,
      "Iden": 7909,
      "Kya": 7910,
      "ctive": 7911,
      "elimu": 7912,
      "hun": 7913,
      "jana": 7914,
      "kaseera": 7915,
      "tabo": 7916,
      "ɛdi": 7917,
      "antic": 7918,
      "replication": 7919,
      "today": 7920,
      "asil": 7921,
      "hope": 7922,
      "sohyial": 7923,
      "hapo": 7924,
      "liana": 7925,
      "agua": 7926,
      "zijanjaba": 7927,
      "biyinza": 7928,
      "gele": 7929,
      "wanted": 7930,
      "omusajja": 7931,
      "mede": 7932,
      "expect": 7933,
      "inequalities": 7934,
      "ekintu": 7935,
      "okweyoleka": 7936,
      "pengele": 7937,
      "jibika": 7938,
      "fikia": 7939,
      "minimize": 7940,
      "አይነት": 7941,
      "ኤችፒቪ": 7942,
      "kujadili": 7943,
      "Discharge": 7944,
      "አንዳን": 7945,
      "assertiveness": 7946,
      "stitute": 7947,
      "mbus": 7948,
      "Stress": 7949,
      "Weewale": 7950,
      "struggling": 7951,
      "Ahyehyɛde": 7952,
      "Columbus": 7953,
      "nkumaa": 7954,
      "Hatari": 7955,
      "kozeseddwa": 7956,
      "changanyiko": 7957,
      "'.": 7958,
      "75": 7959,
      "Eur": 7960,
      "Gino": 7961,
      "Mis": 7962,
      "dating": 7963,
      "iki": 7964,
      "nto": 7965,
      "tat": 7966,
      "zingatia": 7967,
      "ሁለ": 7968,
      "በሙሉ": 7969,
      "ባል": 7970,
      "ቱም": 7971,
      "ውጤ": 7972,
      "ጠት": 7973,
      "ጨም": 7974,
      "anin": 7975,
      "ena": 7976,
      "tise": 7977,
      "redi": 7978,
      "kubɔ": 7979,
      "wɔr": 7980,
      "wɔawo": 7981,
      "olul": 7982,
      "implants": 7983,
      "team": 7984,
      "terine": 7985,
      "urt": 7986,
      "poor": 7987,
      "abawere": 7988,
      "fekubɔ": 7989,
      "Chan": 7990,
      "ebereza": 7991,
      "iliyo": 7992,
      "abien": 7993,
      "mbaya": 7994,
      "wanapaswa": 7995,
      "mmua": 7996,
      "cramps": 7997,
      "watagana": 7998,
      "ahwɛfo": 7999,
      "reflect": 8000,
      "Control": 8001,
      "Promote": 8002,
      "couples": 8003,
      "buttocks": 8004,
      "Abasawo": 8005,
      "አንዳንድ": 8006,
      "Ato": 8007,
      "Ani": 8008,
      "Ebers": 8009,
      "GHS": 8010,
      "Mpene": 8011,
      "Non": 8012,
      "Nkyerɛkyerɛ": 8013,
      "Please": 8014,
      "Ra": 8015,
      "SH": 8016,
      "That": 8017,
      "Tafuta": 8018,
      "badde": 8019,
      "false": 8020,
      "lis": 8021,
      "sisi": 8022,
      "une": 8023,
      "Ɛnyɛ": 8024,
      "ሁኔ": 8025,
      "መለ": 8026,
      "አበባ": 8027,
      "yagaza": 8028,
      "defin": 8029,
      "amal": 8030,
      "ultiv": 8031,
      "kijja": 8032,
      "bɛto": 8033,
      "path": 8034,
      "papy": 8035,
      "kwako": 8036,
      "lay": 8037,
      "amateeka": 8038,
      "doses": 8039,
      "okolo": 8040,
      "Through": 8041,
      "manip": 8042,
      "isitiza": 8043,
      "tancy": 8044,
      "akokwaw": 8045,
      "ebizaala": 8046,
      "therefore": 8047,
      "ekiyinza": 8048,
      "leads": 8049,
      "wobɛhwɛ": 8050,
      "mostly": 8051,
      "responsive": 8052,
      "abusuafo": 8053,
      "obwo": 8054,
      "nokwaredi": 8055,
      "Signs": 8056,
      "okuddu": 8057,
      "touched": 8058,
      "expectancy": 8059,
      "vulva": 8060,
      "appointment": 8061,
      "Partners": 8062,
      "muganzi": 8063,
      "1550": 8064,
      "1553": 8065,
      "Addressing": 8066,
      "Tertiary": 8067,
      "1980s": 8068,
      "predominantly": 8069,
      "Laws": 8070,
      "አንቲባዮቲ": 8071,
      "Different": 8072,
      "Europe": 8073,
      "Atosɛm": 8074,
      "ሁኔታ": 8075,
      "papyrus": 8076,
      "\",": 8077,
      "//": 8078,
      "://": 8079,
      "Babies": 8080,
      "Go": 8081,
      "Mad": 8082,
      "bat": 8083,
      "bala": 8084,
      "dam": 8085,
      "htt": 8086,
      "መርመ": 8087,
      "ቆጣጠ": 8088,
      "በማ": 8089,
      "ክብ": 8090,
      "enkula": 8091,
      "kuepuka": 8092,
      "mastu": 8093,
      "magezi": 8094,
      "musc": 8095,
      "wɔgye": 8096,
      "arag": 8097,
      "ofanya": 8098,
      "tut": 8099,
      "woyɛ": 8100,
      "sɛe": 8101,
      "unda": 8102,
      "ziwa": 8103,
      "wanadamu": 8104,
      "lazima": 8105,
      "shame": 8106,
      "atikana": 8107,
      "wontua": 8108,
      "eddene": 8109,
      "waliza": 8110,
      "eziyinza": 8111,
      "respond": 8112,
      "asuafo": 8113,
      "participants": 8114,
      "necessarily": 8115,
      "encouragement": 8116,
      "accessibility": 8117,
      "ekirungo": 8118,
      "victim": 8119,
      "define": 8120,
      "field": 8121,
      "affordable": 8122,
      "ayarefo": 8123,
      "modern": 8124,
      "distress": 8125,
      "obutalaga": 8126,
      "enneewulira": 8127,
      "advertis": 8128,
      "Headache": 8129,
      "mastur": 8130,
      "aragha": 8131,
      "Basobola": 8132,
      "Elimu": 8133,
      "Okwegatta": 8134,
      "Speak": 8135,
      "Ye": 8136,
      "cra": 8137,
      "fl": 8138,
      "ganda": 8139,
      "mɛ": 8140,
      "mku": 8141,
      "ole": 8142,
      "vitu": 8143,
      "zisi": 8144,
      "zonna": 8145,
      "ላጭ": 8146,
      "ረት": 8147,
      "ord": 8148,
      "andami": 8149,
      "butereevu": 8150,
      "kam": 8151,
      "sil": 8152,
      "acquired": 8153,
      "achuku": 8154,
      "adjust": 8155,
      "okuboolebwa": 8156,
      "bifo": 8157,
      "afra": 8158,
      "gay": 8159,
      "mod": 8160,
      "ratives": 8161,
      "huambukizwa": 8162,
      "abavubuka": 8163,
      "cervical": 8164,
      "oluusi": 8165,
      "ezisobola": 8166,
      "ddwaliro": 8167,
      "gging": 8168,
      "wobɛyɛ": 8169,
      "emotionally": 8170,
      "kukula": 8171,
      "pressured": 8172,
      "onipa": 8173,
      "kitera": 8174,
      "carries": 8175,
      "nsunsuansoɔ": 8176,
      "kora": 8177,
      "reflection": 8178,
      "ongeze": 8179,
      "patter": 8180,
      "ekinene": 8181,
      "kuzaa": 8182,
      "Learn": 8183,
      "kwenyigira": 8184,
      "ቤተሰብ": 8185,
      "unteer": 8186,
      "asilim": 8187,
      "https": 8188,
      "Aba": 8189,
      "Dalili": 8190,
      "Fo": 8191,
      "Lef": 8192,
      "Nucleic": 8193,
      "Sore": 8194,
      "awali": 8195,
      "mzuri": 8196,
      "mchanganyiko": 8197,
      "siri": 8198,
      "vil": 8199,
      "ልጆ": 8200,
      "በመጠቀም": 8201,
      "ancing": 8202,
      "order": 8203,
      "matters": 8204,
      "ingira": 8205,
      "budaabu": 8206,
      "debate": 8207,
      "omm": 8208,
      "abira": 8209,
      "let": 8210,
      "acho": 8211,
      "trichomonas": 8212,
      "tearing": 8213,
      "yezi": 8214,
      "lig": 8215,
      "kiafya": 8216,
      "inapo": 8217,
      "koam": 8218,
      "dogo": 8219,
      "goes": 8220,
      "tambuli": 8221,
      "wɔbɛda": 8222,
      "abibwa": 8223,
      "araji": 8224,
      "amannyo": 8225,
      "ekizibu": 8226,
      "effect": 8227,
      "Cont": 8228,
      "etera": 8229,
      "surface": 8230,
      "adebɔ": 8231,
      "በሽታዎችን": 8232,
      "Disability": 8233,
      "traditions": 8234,
      "container": 8235,
      "localized": 8236,
      "Advocate": 8237,
      "ebyetaago": 8238,
      "angali": 8239,
      "keberero": 8240,
      "Overall": 8241,
      "components": 8242,
      "Help": 8243,
      "stigmatizing": 8244,
      "kakraa": 8245,
      "decades": 8246,
      "እውነት": 8247,
      "mazoea": 8248,
      "Trepone": 8249,
      "Left": 8250,
      "60": 8251,
      "Aane": 8252,
      "Mtu": 8253,
      "Mawa": 8254,
      "air": 8255,
      "uhakika": 8256,
      "ɔyɛ": 8257,
      "ላት": 8258,
      "ነቶች": 8259,
      "ጉዳት": 8260,
      "anes": 8261,
      "inser": 8262,
      "kupon": 8263,
      "kuteeka": 8264,
      "mufo": 8265,
      "yari": 8266,
      "demon": 8267,
      "abakɔsɛm": 8268,
      "dign": 8269,
      "siliano": 8270,
      "entrepr": 8271,
      "unwanted": 8272,
      "kyiri": 8273,
      "mobili": 8274,
      "points": 8275,
      "kwantenpɔn": 8276,
      "Inf": 8277,
      "wɔbɛtumi": 8278,
      "internal": 8279,
      "kozese": 8280,
      "willing": 8281,
      "boresha": 8282,
      "endeke": 8283,
      "okubabuu": 8284,
      "passes": 8285,
      "Soci": 8286,
      "kujif": 8287,
      "Undetectable": 8288,
      "copic": 8289,
      "Sika": 8290,
      "meaningful": 8291,
      "leadership": 8292,
      "Tumi": 8293,
      "Atipɛnfoɔ": 8294,
      "Start": 8295,
      "Mfaso": 8296,
      "Okusalawo": 8297,
      "Opportu": 8298,
      "Check": 8299,
      "uamuzi": 8300,
      "Kisoboka": 8301,
      "utensils": 8302,
      "Mawasiliano": 8303,
      "dignity": 8304,
      "entreprene": 8305,
      "okubabuukirirwa": 8306,
      "Yenkasa": 8307,
      "fas": 8308,
      "ign": 8309,
      "lisobola": 8310,
      "ɔbr": 8311,
      "ሁል": 8312,
      "በር": 8313,
      "በወ": 8314,
      "ከሆነ": 8315,
      "ግባ": 8316,
      "ink": 8317,
      "inten": 8318,
      "independ": 8319,
      "maadili": 8320,
      "irregular": 8321,
      "wɔkyerɛ": 8322,
      "wɔakasa": 8323,
      "itwa": 8324,
      "acquire": 8325,
      "okuge": 8326,
      "zaabwe": 8327,
      "lye": 8328,
      "progesterone": 8329,
      "agabu": 8330,
      "kiku": 8331,
      "kizibu": 8332,
      "syndrome": 8333,
      "career": 8334,
      "nkonim": 8335,
      "yoga": 8336,
      "abazadde": 8337,
      "emb": 8338,
      "wɔbɛte": 8339,
      "drop": 8340,
      "Prac": 8341,
      "asɛde": 8342,
      "akwansideɛ": 8343,
      "ekikaba": 8344,
      "Adherence": 8345,
      "fiti": 8346,
      "balala": 8347,
      "brush": 8348,
      "physically": 8349,
      "Buwuka": 8350,
      "kukuza": 8351,
      "ɛbɛtumi": 8352,
      "visiting": 8353,
      "badala": 8354,
      "obweyagaza": 8355,
      "governments": 8356,
      "odorant": 8357,
      "curricula": 8358,
      "romantic": 8359,
      "ntɛmpɛ": 8360,
      "Treponema": 8361,
      "Cre": 8362,
      "Haku": 8363,
      "Kushiriki": 8364,
      "Nne": 8365,
      "Nause": 8366,
      "bound": 8367,
      "cest": 8368,
      "eligi": 8369,
      "pul": 8370,
      "pallidum": 8371,
      "rafiki": 8372,
      "sasa": 8373,
      "ማሳ": 8374,
      "ሜት": 8375,
      "ሳል": 8376,
      "በኛ": 8377,
      "ተማ": 8378,
      "ንታ": 8379,
      "ከል": 8380,
      "ካለ": 8381,
      "ክሊ": 8382,
      "ዎት": 8383,
      "eni": 8384,
      "kubo": 8385,
      "wabweru": 8386,
      "asse": 8387,
      "asisi": 8388,
      "host": 8389,
      "wɔyem": 8390,
      "naa": 8391,
      "veget": 8392,
      "woadi": 8393,
      "trators": 8394,
      "projects": 8395,
      "unhealthy": 8396,
      "opatikana": 8397,
      "guno": 8398,
      "rip": 8399,
      "bowel": 8400,
      "huo": 8401,
      "nnuro": 8402,
      "asive": 8403,
      "kinds": 8404,
      "kisonono": 8405,
      "mmubu": 8406,
      "intasɛm": 8407,
      "Programs": 8408,
      "ssab": 8409,
      "reduction": 8410,
      "okusaasaanyizibwa": 8411,
      "Sub": 8412,
      "staying": 8413,
      "Nnuru": 8414,
      "wazazi": 8415,
      "nnyonnyola": 8416,
      "ክትባት": 8417,
      "buziibuzi": 8418,
      "Poly": 8419,
      "Latent": 8420,
      "እምነት": 8421,
      "Challeng": 8422,
      "analyze": 8423,
      "expenses": 8424,
      "huruma": 8425,
      "narratives": 8426,
      "zuizi": 8427,
      "solutions": 8428,
      "sharp": 8429,
      "መርመር": 8430,
      "muscles": 8431,
      "Hakuna": 8432,
      "Nausea": 8433,
      "05": 8434,
      "Adu": 8435,
      "Bwe": 8436,
      "Njia": 8437,
      "Pa": 8438,
      "Rash": 8439,
      "bbi": 8440,
      "efu": 8441,
      "job": 8442,
      "ngu": 8443,
      "sɔhwɛ": 8444,
      "vit": 8445,
      "ሞች": 8446,
      "በግብረ": 8447,
      "እብ": 8448,
      "ካት": 8449,
      "የም": 8450,
      "erya": 8451,
      "isdi": 8452,
      "mabadi": 8453,
      "tow": 8454,
      "wɔaka": 8455,
      "itting": 8456,
      "abat": 8457,
      "simi": 8458,
      "okukyuka": 8459,
      "wegera": 8460,
      "yɛbɛ": 8461,
      "woka": 8462,
      "owing": 8463,
      "mpene": 8464,
      "unga": 8465,
      "obuyonjo": 8466,
      "pair": 8467,
      "vertical": 8468,
      "bystand": 8469,
      "tumidi": 8470,
      "cyber": 8471,
      "recent": 8472,
      "gatte": 8473,
      "butera": 8474,
      "interns": 8475,
      "ekiwundu": 8476,
      "step": 8477,
      "branes": 8478,
      "breaks": 8479,
      "tɔyam": 8480,
      "rarely": 8481,
      "connection": 8482,
      "gyae": 8483,
      "korabea": 8484,
      "Nhyi": 8485,
      "ስለሚ": 8486,
      "julizi": 8487,
      "wɔatete": 8488,
      "obwerinzi": 8489,
      "jjanjabwa": 8490,
      "nnubɔne": 8491,
      "therapist": 8492,
      "Amplification": 8493,
      "maelezo": 8494,
      "ɔfotufo": 8495,
      "bbies": 8496,
      "mabadiliko": 8497,
      "simian": 8498,
      "Gonococcal": 8499,
      "Wanaweza": 8500,
      "ayi": 8501,
      "cts": 8502,
      "fish": 8503,
      "lids": 8504,
      "mere": 8505,
      "moral": 8506,
      "mhudumu": 8507,
      "nuru": 8508,
      "nwoma": 8509,
      "oa": 8510,
      "ssaayansi": 8511,
      "ɔwɔ": 8512,
      "ሲሆን": 8513,
      "ስጋ": 8514,
      "ጥን": 8515,
      "ancest": 8516,
      "enj": 8517,
      "enari": 8518,
      "reports": 8519,
      "kuliko": 8520,
      "wapenzi": 8521,
      "wɔaboa": 8522,
      "names": 8523,
      "didi": 8524,
      "okuwuli": 8525,
      "agalimu": 8526,
      "bia": 8527,
      "obusinga": 8528,
      "fair": 8529,
      "lot": 8530,
      "apam": 8531,
      "ahoma": 8532,
      "vative": 8533,
      "abawala": 8534,
      "akwannya": 8535,
      "Chlamydiae": 8536,
      "orized": 8537,
      "eziziyiza": 8538,
      "okukasiiga": 8539,
      "Express": 8540,
      "eyelids": 8541,
      "yanay": 8542,
      "Omutendera": 8543,
      "Have": 8544,
      "indow": 8545,
      "botaeɛ": 8546,
      "nutritious": 8547,
      "assertive": 8548,
      "continues": 8549,
      "okufuuka": 8550,
      "contexts": 8551,
      "competent": 8552,
      "blinding": 8553,
      "Liver": 8554,
      "jurisdi": 8555,
      "ከሰት": 8556,
      "Setting": 8557,
      "jambo": 8558,
      "fulumya": 8559,
      "Asetra": 8560,
      "Medicines": 8561,
      "agizwa": 8562,
      "probably": 8563,
      "Animtiaabu": 8564,
      "consensual": 8565,
      "Asiane": 8566,
      "concentration": 8567,
      "ምህርት": 8568,
      "exploitation": 8569,
      "masturbation": 8570,
      "ancestor": 8571,
      "59": 8572,
      "Drip": 8573,
      "Kuna": 8574,
      "Matumi": 8575,
      "Ref": 8576,
      "Web": 8577,
      "awatali": 8578,
      "bally": 8579,
      "ekozesebwa": 8580,
      "pya": 8581,
      "ufaa": 8582,
      "ናል": 8583,
      "ፍሰ": 8584,
      "erved": 8585,
      "kusii": 8586,
      "muc": 8587,
      "holy": 8588,
      "buzibu": 8589,
      "lezi": 8590,
      "lever": 8591,
      "olera": 8592,
      "akaseera": 8593,
      "okuyitibwa": 8594,
      "okusigala": 8595,
      "baanu": 8596,
      "obuziyiza": 8597,
      "mogya": 8598,
      "omubuziibuzi": 8599,
      "kota": 8600,
      "endya": 8601,
      "existing": 8602,
      "vipimo": 8603,
      "okwal": 8604,
      "ebis": 8605,
      "needle": 8606,
      "Okut": 8607,
      "antigen": 8608,
      "mmɔne": 8609,
      "etateeka": 8610,
      "binom": 8611,
      "tablets": 8612,
      "Pelvic": 8613,
      "increasing": 8614,
      "Discrim": 8615,
      "Associ": 8616,
      "network": 8617,
      "Communicate": 8618,
      "holding": 8619,
      "protocol": 8620,
      "obuwabuzi": 8621,
      "Hormonal": 8622,
      "999": 8623,
      "couple": 8624,
      "component": 8625,
      "fulumira": 8626,
      "categories": 8627,
      "journey": 8628,
      "weakened": 8629,
      "atiliaji": 8630,
      "Nsusuwii": 8631,
      "okumanyisa": 8632,
      "socioeconomic": 8633,
      "Bulwadde": 8634,
      "ንታሮ": 8635,
      "0540": 8636,
      "Matumizi": 8637,
      "Ass": 8638,
      "Find": 8639,
      "Mouth": 8640,
      "Meth": 8641,
      "kero": 8642,
      "mmon": 8643,
      "mjam": 8644,
      "መረ": 8645,
      "ኪንታሮ": 8646,
      "inity": 8647,
      "maanisha": 8648,
      "buo": 8649,
      "kaa": 8650,
      "illegal": 8651,
      "bathing": 8652,
      "preterm": 8653,
      "night": 8654,
      "doing": 8655,
      "ringes": 8656,
      "Prof": 8657,
      "atitiriw": 8658,
      "Gensis": 8659,
      "liness": 8660,
      "Report": 8661,
      "Repeated": 8662,
      "Wɔbɛ": 8663,
      "Kuwa": 8664,
      "Exerc": 8665,
      "okulongoosa": 8666,
      "controlled": 8667,
      "playing": 8668,
      "ያስተ": 8669,
      "standing": 8670,
      "obutera": 8671,
      "መጠን": 8672,
      "Antibody": 8673,
      "Emphas": 8674,
      "text": 8675,
      "limitations": 8676,
      "attend": 8677,
      "nearest": 8678,
      "ebiriisa": 8679,
      "meeting": 8680,
      "okunafu": 8681,
      "deeply": 8682,
      "validation": 8683,
      "Nsakra": 8684,
      "mugaso": 8685,
      "Developing": 8686,
      "placed": 8687,
      "okuwummu": 8688,
      "savings": 8689,
      "accountability": 8690,
      "Financial": 8691,
      "ananmusifo": 8692,
      "storage": 8693,
      "prevalence": 8694,
      "ɔbrasɛe": 8695,
      "vegetables": 8696,
      "mjamzito": 8697,
      "Mimba": 8698,
      "Ny": 8699,
      "Panad": 8700,
      "Surr": 8701,
      "baba": 8702,
      "ftriaxone": 8703,
      "hisi": 8704,
      "hence": 8705,
      "jua": 8706,
      "lt": 8707,
      "mirimu": 8708,
      "vye": 8709,
      "ደግ": 8710,
      "thical": 8711,
      "maumi": 8712,
      "wam": 8713,
      "buulira": 8714,
      "aria": 8715,
      "okule": 8716,
      "chanya": 8717,
      "mpanin": 8718,
      "ceftriaxone": 8719,
      "inade": 8720,
      "antam": 8721,
      "ebya": 8722,
      "ebiku": 8723,
      "Okufuna": 8724,
      "abotɔyam": 8725,
      "concerning": 8726,
      "hard": 8727,
      "kokoamu": 8728,
      "amizibwa": 8729,
      "okulya": 8730,
      "ologies": 8731,
      "በሽታው": 8732,
      "Tewali": 8733,
      "1959": 8734,
      "Organi": 8735,
      "ኢንፌክሽኑ": 8736,
      "implementing": 8737,
      "frequently": 8738,
      "statements": 8739,
      "clay": 8740,
      "achieving": 8741,
      "Groups": 8742,
      "Second": 8743,
      "Relationshi": 8744,
      "Kinsh": 8745,
      "Identify": 8746,
      "Discrimination": 8747,
      "Association": 8748,
      "Exercise": 8749,
      "Panadol": 8750,
      "maumivu": 8751,
      "\").": 8752,
      "Age": 8753,
      "Buli": 8754,
      "CH": 8755,
      "Def": 8756,
      "Im": 8757,
      "Local": 8758,
      "Main": 8759,
      "Will": 8760,
      "ebe": 8761,
      "gwange": 8762,
      "igh": 8763,
      "oy": 8764,
      "pira": 8765,
      "sakra": 8766,
      "uth": 8767,
      "worry": 8768,
      "injur": 8769,
      "erina": 8770,
      "kuchangia": 8771,
      "maziwa": 8772,
      "hobbies": 8773,
      "wɔakamfo": 8774,
      "omero": 8775,
      "okuwangaala": 8776,
      "tube": 8777,
      "wevu": 8778,
      "woatumi": 8779,
      "wuhu": 8780,
      "year": 8781,
      "ules": 8782,
      "lubr": 8783,
      "wɔnya": 8784,
      "sawa": 8785,
      "incid": 8786,
      "buntu": 8787,
      "manyi": 8788,
      "whole": 8789,
      "tangu": 8790,
      "produced": 8791,
      "recovery": 8792,
      "bɛnya": 8793,
      "kɔmp": 8794,
      "curity": 8795,
      "Okukwatibwa": 8796,
      "ambapo": 8797,
      "teeth": 8798,
      "animdefo": 8799,
      "passage": 8800,
      "okukkakkanya": 8801,
      "Need": 8802,
      "nkyerɛkyerɛmu": 8803,
      "okulaga": 8804,
      "kusisitiza": 8805,
      "Buno": 8806,
      "nkateɛ": 8807,
      "Akwankyerɛ": 8808,
      "ahoɔfɛ": 8809,
      "yambibwa": 8810,
      "abalwadde": 8811,
      "abalenzi": 8812,
      "nutrients": 8813,
      "greater": 8814,
      "hukumu": 8815,
      "dedicated": 8816,
      "እንዳይ": 8817,
      "viewed": 8818,
      "Nhyehyɛeɛ": 8819,
      "microbi": 8820,
      "Personal": 8821,
      "ባለሙያዎች": 8822,
      "Ntetee": 8823,
      "activism": 8824,
      "Bacterial": 8825,
      "distinc": 8826,
      "vyema": 8827,
      "375": 8828,
      "460": 8829,
      "Ji": 8830,
      "Katika": 8831,
      "Sua": 8832,
      "athe": 8833,
      "dle": 8834,
      "hunting": 8835,
      "ppo": 8836,
      "yit": 8837,
      "zens": 8838,
      "zirina": 8839,
      "Ɔman": 8840,
      "ɔdɔ": 8841,
      "ኝነት": 8842,
      "ዳር": 8843,
      "erous": 8844,
      "enny": 8845,
      "kufa": 8846,
      "buleeta": 8847,
      "nafu": 8848,
      "lekera": 8849,
      "dization": 8850,
      "acted": 8851,
      "okuzi": 8852,
      "wowote": 8853,
      "afahyɛ": 8854,
      "obuzimba": 8855,
      "hibit": 8856,
      "opini": 8857,
      "fru": 8858,
      "bose": 8859,
      "citi": 8860,
      "cious": 8861,
      "ekisinga": 8862,
      "gyede": 8863,
      "choosing": 8864,
      "advance": 8865,
      "antimicrobi": 8866,
      "marafiki": 8867,
      "familia": 8868,
      "Conne": 8869,
      "crates": 8870,
      "Wobɛ": 8871,
      "ntetan": 8872,
      "hybri": 8873,
      "initiate": 8874,
      "clearly": 8875,
      "Disseminated": 8876,
      "Tele": 8877,
      "wɔreyɛ": 8878,
      "measure": 8879,
      "mwisho": 8880,
      "Hippo": 8881,
      "insights": 8882,
      "progresses": 8883,
      "honestly": 8884,
      "Avoiding": 8885,
      "strengths": 8886,
      "chimpanzee": 8887,
      "counsellor": 8888,
      "epididy": 8889,
      "engoye": 8890,
      "compromised": 8891,
      "Tinidazole": 8892,
      "recurring": 8893,
      "መደበኛ": 8894,
      "microscope": 8895,
      "advertising": 8896,
      "hybridization": 8897,
      "Hippocrates": 8898,
      "Make": 8899,
      "Nsu": 8900,
      "bbanga": 8901,
      "cere": 8902,
      "dir": 8903,
      "hind": 8904,
      "rate": 8905,
      "udate": 8906,
      "window": 8907,
      "ሊሆን": 8908,
      "መጥ": 8909,
      "ቃል": 8910,
      "ነስ": 8911,
      "ኘት": 8912,
      "ፀን": 8913,
      "’)": 8914,
      "matiza": 8915,
      "toile": 8916,
      "aspect": 8917,
      "behind": 8918,
      "okuteekawo": 8919,
      "wides": 8920,
      "concept": 8921,
      "agiddwa": 8922,
      "ulirako": 8923,
      "kimatibabu": 8924,
      "odde": 8925,
      "omuwala": 8926,
      "fã": 8927,
      "exact": 8928,
      "exudate": 8929,
      "plements": 8930,
      "ahobanbɔ": 8931,
      "mmabunbere": 8932,
      "felt": 8933,
      "isiyo": 8934,
      "okweku": 8935,
      "okwegendereza": 8936,
      "ocular": 8937,
      "transmittable": 8938,
      "protects": 8939,
      "ambuza": 8940,
      "olution": 8941,
      "olukonvuba": 8942,
      "developed": 8943,
      "video": 8944,
      "fikiri": 8945,
      "እናት": 8946,
      "plays": 8947,
      "mɔn": 8948,
      "balabe": 8949,
      "spir": 8950,
      "track": 8951,
      "forming": 8952,
      "evaluating": 8953,
      "obutakwatibwa": 8954,
      "numerous": 8955,
      "connections": 8956,
      "akyirikyiri": 8957,
      "ያስከትላል": 8958,
      "collaborate": 8959,
      "routes": 8960,
      "inategemea": 8961,
      "addiction": 8962,
      "integrated": 8963,
      "እንዳለ": 8964,
      "piratory": 8965,
      "specialists": 8966,
      "duruyɛfo": 8967,
      "Limited": 8968,
      "Schools": 8969,
      "drinking": 8970,
      "placenta": 8971,
      "akonta": 8972,
      "clarify": 8973,
      "competence": 8974,
      "gumiza": 8975,
      "Yogerako": 8976,
      "tendekero": 8977,
      "ongezeka": 8978,
      "Secondary": 8979,
      "Maintain": 8980,
      "distinct": 8981,
      "antimicrobial": 8982,
      "widespread": 8983,
      "228": 8984,
      "5118": 8985,
      "dine": 8986,
      "eka": 8987,
      "hili": 8988,
      "kalina": 8989,
      "nasa": 8990,
      "yasi": 8991,
      "ሊተላለፍ": 8992,
      "መሆኑ": 8993,
      "ረር": 8994,
      "ሮችን": 8995,
      "ቦታ": 8996,
      "ተጋ": 8997,
      "ቱን": 8998,
      "የፀረ": 8999,
      "ገዋል": 9000,
      "anammɔ": 9001,
      "ergy": 9002,
      "ensusu": 9003,
      "kukwatagana": 9004,
      "kuongeza": 9005,
      "istu": 9006,
      "maka": 9007,
      "ingo": 9008,
      "bubi": 9009,
      "kafoɔ": 9010,
      "wɔres": 9011,
      "wɔkyɛ": 9012,
      "itary": 9013,
      "demic": 9014,
      "deodorant": 9015,
      "amin": 9016,
      "woate": 9017,
      "ilt": 9018,
      "confusion": 9019,
      "chak": 9020,
      "ately": 9021,
      "symptomatic": 9022,
      "meditation": 9023,
      "peat": 9024,
      "expression": 9025,
      "vifaa": 9026,
      "ekituufu": 9027,
      "pline": 9028,
      "Itching": 9029,
      "abaagalana": 9030,
      "vum": 9031,
      "vudine": 9032,
      "membranes": 9033,
      "ntini": 9034,
      "impacts": 9035,
      "የሚችል": 9036,
      "diagnose": 9037,
      "adeyɛ": 9038,
      "መድሀ": 9039,
      "okusooso": 9040,
      "perspective": 9041,
      "kulina": 9042,
      "mmaabun": 9043,
      "ondoa": 9044,
      "MTN": 9045,
      "ntentanfidie": 9046,
      "frequency": 9047,
      "ndoa": 9048,
      "nkwammoa": 9049,
      "eddembe": 9050,
      "Oluvannyuma": 9051,
      "ቁስሎች": 9052,
      "Polic": 9053,
      "diarrhoea": 9054,
      "market": 9055,
      "administer": 9056,
      "Mmofra": 9057,
      "nkomerero": 9058,
      "butaffaali": 9059,
      "0245118": 9060,
      "storytelling": 9061,
      "Yellow": 9062,
      "ክሊኒ": 9063,
      "Profession": 9064,
      "Surround": 9065,
      "kɔmputa": 9066,
      "0245118228": 9067,
      "Ah": 9068,
      "Centers": 9069,
      "Flu": 9070,
      "Lif": 9071,
      "Mmea": 9072,
      "Nya": 9073,
      "Omwana": 9074,
      "cat": 9075,
      "culo": 9076,
      "ew": 9077,
      "ehia": 9078,
      "hwa": 9079,
      "ier": 9080,
      "kkeberero": 9081,
      "pto": 9082,
      "pons": 9083,
      "uko": 9084,
      "ህል": 9085,
      "በፊት": 9086,
      "ወሰ": 9087,
      "kukosa": 9088,
      "musango": 9089,
      "attrac": 9090,
      "tolina": 9091,
      "kapiira": 9092,
      "kaweefube": 9093,
      "wɔahwehwɛ": 9094,
      "depart": 9095,
      "omesebwa": 9096,
      "adher": 9097,
      "addition": 9098,
      "okuli": 9099,
      "bazadde": 9100,
      "teg": 9101,
      "ager": 9102,
      "agency": 9103,
      "kyim": 9104,
      "opo": 9105,
      "keka": 9106,
      "faan": 9107,
      "aliimu": 9108,
      "partial": 9109,
      "ekola": 9110,
      "hugging": 9111,
      "transfusion": 9112,
      "oca": 9113,
      "berculo": 9114,
      "mengi": 9115,
      "kɔkɔ": 9116,
      "wanaume": 9117,
      "unapo": 9118,
      "conscious": 9119,
      "detailed": 9120,
      "ddwa": 9121,
      "Ensure": 9122,
      "clinical": 9123,
      "consultations": 9124,
      "okutya": 9125,
      "wounded": 9126,
      "emiganyulo": 9127,
      "Dwumadie": 9128,
      "husishwa": 9129,
      "Kwati": 9130,
      "inflammatory": 9131,
      "okunywa": 9132,
      "shahawa": 9133,
      "counters": 9134,
      "baguzi": 9135,
      "alternatives": 9136,
      "የወር": 9137,
      "Abusu": 9138,
      "counselling": 9139,
      "documented": 9140,
      "zilizo": 9141,
      "believed": 9142,
      "hunter": 9143,
      "zisizo": 9144,
      "mucous": 9145,
      "citizens": 9146,
      "berculosis": 9147,
      "Fac": 9148,
      "ote": 9149,
      "omaze": 9150,
      "ሙና": 9151,
      "ቆዳ": 9152,
      "ንነት": 9153,
      "ወጣ": 9154,
      "ዕድ": 9155,
      "የሰውነት": 9156,
      "ጋራ": 9157,
      "intro": 9158,
      "aling": 9159,
      "encounters": 9160,
      "kukozesebwa": 9161,
      "mapenzi": 9162,
      "masuala": 9163,
      "irirwa": 9164,
      "wɔabɔ": 9165,
      "wipes": 9166,
      "wet": 9167,
      "wul": 9168,
      "ually": 9169,
      "kikola": 9170,
      "miongo": 9171,
      "paka": 9172,
      "verty": 9173,
      "urs": 9174,
      "omulwadde": 9175,
      "omuwere": 9176,
      "poverty": 9177,
      "sapp": 9178,
      "ilivyo": 9179,
      "changa": 9180,
      "esiw": 9181,
      "ogra": 9182,
      "faction": 9183,
      "whatsapp": 9184,
      "occurring": 9185,
      "behaviours": 9186,
      "ofovir": 9187,
      "kirina": 9188,
      "enyezebwa": 9189,
      "Muda": 9190,
      "organisma": 9191,
      "tegemea": 9192,
      "nhyɛsoɔ": 9193,
      "obutonde": 9194,
      "abstaining": 9195,
      "mwembi": 9196,
      "scenari": 9197,
      "obutazaala": 9198,
      "clubs": 9199,
      "respects": 9200,
      "globally": 9201,
      "Load": 9202,
      "merase": 9203,
      "Strang": 9204,
      "Kokoam": 9205,
      "kukendeeza": 9206,
      "asiigibwa": 9207,
      "curriculum": 9208,
      "akontaa": 9209,
      "Examples": 9210,
      "መውሰድ": 9211,
      "perpetuate": 9212,
      "Nhwɛsoɔ": 9213,
      "accountable": 9214,
      "credibility": 9215,
      "inashauriwa": 9216,
      "manipulation": 9217,
      "asilimali": 9218,
      "arajiwa": 9219,
      "kozesezza": 9220,
      "embarr": 9221,
      "Polymerase": 9222,
      "internships": 9223,
      "Websites": 9224,
      "anammɔn": 9225,
      "okusoosowaza": 9226,
      "Ahintasɛm": 9227,
      "Strangury": 9228,
      "36": 9229,
      "Ano": 9230,
      "Dark": 9231,
      "Econ": 9232,
      "Fu": 9233,
      "IC": 9234,
      "Ili": 9235,
      "Mat": 9236,
      "bis": 9237,
      "easi": 9238,
      "gaso": 9239,
      "rho": 9240,
      "run": 9241,
      "sports": 9242,
      "vital": 9243,
      "ɛtwe": 9244,
      "አሁ": 9245,
      "እነ": 9246,
      "ዘዴ": 9247,
      "inno": 9248,
      "kuzaala": 9249,
      "mapendeke": 9250,
      "waka": 9251,
      "aspir": 9252,
      "deci": 9253,
      "okunnyonnyola": 9254,
      "tayari": 9255,
      "immun": 9256,
      "hibiti": 9257,
      "miti": 9258,
      "prepare": 9259,
      "pecting": 9260,
      "Invol": 9261,
      "Informed": 9262,
      "isikuru": 9263,
      "pikirizibwa": 9264,
      "zoefu": 9265,
      "wɔbɛboa": 9266,
      "useful": 9267,
      "kinacho": 9268,
      "SRR": 9269,
      "kupimwa": 9270,
      "coord": 9271,
      "variety": 9272,
      "akɔhwehwɛ": 9273,
      "nonjudgmental": 9274,
      "Untransmittable": 9275,
      "limits": 9276,
      "sikakorabea": 9277,
      "Respecting": 9278,
      "stools": 9279,
      "okutateeka": 9280,
      "vocational": 9281,
      "prescription": 9282,
      "trying": 9283,
      "Safety": 9284,
      "Priori": 9285,
      "strongly": 9286,
      "Collection": 9287,
      "okuyonsa": 9288,
      "Strate": 9289,
      "የማህ": 9290,
      "ebyekuusa": 9291,
      "intrauterine": 9292,
      "Adwumayɛ": 9293,
      "Ayaresabea": 9294,
      "investment": 9295,
      "Certain": 9296,
      "okwekenneenyezebwa": 9297,
      "finger": 9298,
      "temporary": 9299,
      "kujifungua": 9300,
      "ሁልጊዜ": 9301,
      "ahomatrofo": 9302,
      "Abusuabɔ": 9303,
      "rhosis": 9304,
      "mapendekezo": 9305,
      "aspirations": 9306,
      "Ebyobulamu": 9307,
      "Fem": 9308,
      "Sleep": 9309,
      "Tech": 9310,
      "Whether": 9311,
      "awi": 9312,
      "nic": 9313,
      "whel": 9314,
      "ለኛ": 9315,
      "ስት": 9316,
      "ቅር": 9317,
      "ታት": 9318,
      "እስ": 9319,
      "inher": 9320,
      "recep": 9321,
      "kumanya": 9322,
      "mahitaji": 9323,
      "wabaawo": 9324,
      "iteria": 9325,
      "okukyukakyuka": 9326,
      "teki": 9327,
      "prostate": 9328,
      "chana": 9329,
      "lika": 9330,
      "prepared": 9331,
      "Their": 9332,
      "kwani": 9333,
      "hudi": 9334,
      "supplements": 9335,
      "mmwe": 9336,
      "anywa": 9337,
      "anigyede": 9338,
      "wɔbɛkasa": 9339,
      "tisha": 9340,
      "biribiara": 9341,
      "olutely": 9342,
      "percent": 9343,
      "amanyi": 9344,
[...]
